#ifndef MODEL_DATA_H
#define MODEL_DATA_H

alignas(16) const unsigned char model_data[] = {
 0x1c, 0x00, 0x00, 0x00, 0x54, 0x46, 0x4c, 0x33, 0x14, 0x00, 0x20, 0x00,
 0x1c, 0x00, 0x18, 0x00, 0x14, 0x00, 0x10, 0x00, 0x0c, 0x00, 0x00, 0x00,
 0x08, 0x00, 0x04, 0x00, 0x14, 0x00, 0x00, 0x00, 0x1c, 0x00, 0x00, 0x00,
 0x8c, 0x00, 0x00, 0x00, 0xe4, 0x00, 0x00, 0x00, 0x38, 0x2f, 0x00, 0x00,
 0x48, 0x2f, 0x00, 0x00, 0xf8, 0x36, 0x00, 0x00, 0x03, 0x00, 0x00, 0x00,
 0x01, 0x00, 0x00, 0x00, 0x04, 0x00, 0x00, 0x00, 0xce, 0xcf, 0xff, 0xff,
 0x0c, 0x00, 0x00, 0x00, 0x1c, 0x00, 0x00, 0x00, 0x3c, 0x00, 0x00, 0x00,
 0x0f, 0x00, 0x00, 0x00, 0x73, 0x65, 0x72, 0x76, 0x69, 0x6e, 0x67, 0x5f,
 0x64, 0x65, 0x66, 0x61, 0x75, 0x6c, 0x74, 0x00, 0x01, 0x00, 0x00, 0x00,
 0x04, 0x00, 0x00, 0x00, 0x90, 0xff, 0xff, 0xff, 0x0d, 0x00, 0x00, 0x00,
 0x04, 0x00, 0x00, 0x00, 0x08, 0x00, 0x00, 0x00, 0x6f, 0x75, 0x74, 0x70,
 0x75, 0x74, 0x5f, 0x30, 0x00, 0x00, 0x00, 0x00, 0x01, 0x00, 0x00, 0x00,
 0x04, 0x00, 0x00, 0x00, 0x8a, 0xd1, 0xff, 0xff, 0x04, 0x00, 0x00, 0x00,
 0x0c, 0x00, 0x00, 0x00, 0x6b, 0x65, 0x72, 0x61, 0x73, 0x5f, 0x74, 0x65,
 0x6e, 0x73, 0x6f, 0x72, 0x00, 0x00, 0x00, 0x00, 0x02, 0x00, 0x00, 0x00,
 0x34, 0x00, 0x00, 0x00, 0x04, 0x00, 0x00, 0x00, 0xdc, 0xff, 0xff, 0xff,
 0x10, 0x00, 0x00, 0x00, 0x04, 0x00, 0x00, 0x00, 0x13, 0x00, 0x00, 0x00,
 0x43, 0x4f, 0x4e, 0x56, 0x45, 0x52, 0x53, 0x49, 0x4f, 0x4e, 0x5f, 0x4d,
 0x45, 0x54, 0x41, 0x44, 0x41, 0x54, 0x41, 0x00, 0x08, 0x00, 0x0c, 0x00,
 0x08, 0x00, 0x04, 0x00, 0x08, 0x00, 0x00, 0x00, 0x0f, 0x00, 0x00, 0x00,
 0x04, 0x00, 0x00, 0x00, 0x13, 0x00, 0x00, 0x00, 0x6d, 0x69, 0x6e, 0x5f,
 0x72, 0x75, 0x6e, 0x74, 0x69, 0x6d, 0x65, 0x5f, 0x76, 0x65, 0x72, 0x73,
 0x69, 0x6f, 0x6e, 0x00, 0x11, 0x00, 0x00, 0x00, 0x50, 0x2e, 0x00, 0x00,
 0x48, 0x2e, 0x00, 0x00, 0xf8, 0x2d, 0x00, 0x00, 0xdc, 0x2d, 0x00, 0x00,
 0x8c, 0x2d, 0x00, 0x00, 0x7c, 0x09, 0x00, 0x00, 0x64, 0x09, 0x00, 0x00,
 0x14, 0x01, 0x00, 0x00, 0xc4, 0x00, 0x00, 0x00, 0xbc, 0x00, 0x00, 0x00,
 0xb4, 0x00, 0x00, 0x00, 0xac, 0x00, 0x00, 0x00, 0xa4, 0x00, 0x00, 0x00,
 0x9c, 0x00, 0x00, 0x00, 0x94, 0x00, 0x00, 0x00, 0x74, 0x00, 0x00, 0x00,
 0x04, 0x00, 0x00, 0x00, 0x4a, 0xd2, 0xff, 0xff, 0x04, 0x00, 0x00, 0x00,
 0x60, 0x00, 0x00, 0x00, 0x10, 0x00, 0x00, 0x00, 0x00, 0x00, 0x00, 0x00,
 0x08, 0x00, 0x0e, 0x00, 0x08, 0x00, 0x04, 0x00, 0x08, 0x00, 0x00, 0x00,
 0x10, 0x00, 0x00, 0x00, 0x24, 0x00, 0x00, 0x00, 0x00, 0x00, 0x06, 0x00,
 0x08, 0x00, 0x04, 0x00, 0x06, 0x00, 0x00, 0x00, 0x04, 0x00, 0x00, 0x00,
 0x00, 0x00, 0x00, 0x00, 0x0c, 0x00, 0x18, 0x00, 0x14, 0x00, 0x10, 0x00,
 0x0c, 0x00, 0x04, 0x00, 0x0c, 0x00, 0x00, 0x00, 0x09, 0x26, 0xed, 0xdf,
 0x3c, 0x6a, 0x63, 0x11, 0x02, 0x00, 0x00, 0x00, 0x02, 0x00, 0x00, 0x00,
 0x04, 0x00, 0x00, 0x00, 0x06, 0x00, 0x00, 0x00, 0x32, 0x2e, 0x32, 0x31,
 0x2e, 0x30, 0x00, 0x00, 0xb6, 0xd2, 0xff, 0xff, 0x04, 0x00, 0x00, 0x00,
 0x10, 0x00, 0x00, 0x00, 0x31, 0x2e, 0x31, 0x34, 0x2e, 0x30, 0x00, 0x00,
 0x00, 0x00, 0x00, 0x00, 0x00, 0x00, 0x00, 0x00, 0xf0, 0xca, 0xff, 0xff,
 0xf4, 0xca, 0xff, 0xff, 0xf8, 0xca, 0xff, 0xff, 0xfc, 0xca, 0xff, 0xff,
 0x00, 0xcb, 0xff, 0xff, 0x04, 0xcb, 0xff, 0xff, 0xea, 0xd2, 0xff, 0xff,
 0x04, 0x00, 0x00, 0x00, 0x40, 0x00, 0x00, 0x00, 0x49, 0xf0, 0x4c, 0x3f,
 0x19, 0xd3, 0xad, 0xbe, 0x1c, 0x07, 0x84, 0xbc, 0x57, 0x25, 0xe6, 0x3e,
 0xa2, 0x0c, 0x9c, 0xbc, 0x51, 0x41, 0x67, 0xbc, 0x3b, 0x30, 0xae, 0xbb,
 0x69, 0x50, 0x85, 0xbe, 0xe8, 0x15, 0xa3, 0xbe, 0x0b, 0x3c, 0x90, 0xbc,
 0x54, 0xba, 0x0f, 0x3c, 0x5e, 0xff, 0x91, 0xbe, 0x09, 0xf1, 0x43, 0xbc,
 0x25, 0x6a, 0xa6, 0xbc, 0x3f, 0x30, 0x8a, 0x3e, 0x8a, 0xb3, 0x4b, 0xbf,
 0x36, 0xd3, 0xff, 0xff, 0x04, 0x00, 0x00, 0x00, 0x40, 0x08, 0x00, 0x00,
 0x7d, 0x8e, 0xbb, 0x3e, 0x96, 0x42, 0x4c, 0xbe, 0xe7, 0xda, 0xb2, 0x3d,
 0xfb, 0xc6, 0x08, 0xc0, 0xd3, 0x89, 0x88, 0xbe, 0x25, 0x28, 0xe8, 0x3e,
 0xeb, 0xa6, 0xa1, 0x3e, 0xa9, 0xb9, 0x5e, 0xbf, 0x9f, 0x42, 0x18, 0x3f,
 0xa7, 0x3f, 0xae, 0xbf, 0x9e, 0xfc, 0xbe, 0x3e, 0x3e, 0xfb, 0xb6, 0x3e,
 0xd7, 0x43, 0xb5, 0xbd, 0xbf, 0x84, 0x6c, 0xbd, 0x1b, 0x11, 0x0c, 0xc0,
 0x95, 0x13, 0xaa, 0xbe, 0xf5, 0x08, 0x3f, 0x3f, 0x91, 0x9d, 0x40, 0x3e,
 0xd7, 0xcd, 0x6d, 0xbf, 0x63, 0x6d, 0x1e, 0x3f, 0x14, 0xf0, 0xc0, 0xbf,
 0xb1, 0x28, 0xa0, 0x3e, 0xb3, 0x85, 0x8d, 0x3e, 0xbb, 0x93, 0x29, 0xbd,
 0xfe, 0x1d, 0x36, 0x3d, 0x10, 0x92, 0x0d, 0xc0, 0x34, 0xc9, 0x0f, 0xbf,
 0xcf, 0x11, 0x1d, 0x3f, 0xea, 0xba, 0x47, 0x3e, 0xe2, 0x1f, 0x58, 0xbf,
 0x1c, 0xf8, 0x59, 0x3f, 0x9a, 0x9e, 0xaa, 0xbf, 0xee, 0xea, 0x03, 0x3f,
 0xe6, 0x06, 0xdb, 0xbd, 0x2f, 0x30, 0xfe, 0xbd, 0x4c, 0x8c, 0xbe, 0x3c,
 0x36, 0x68, 0x8a, 0x3e, 0xab, 0xd4, 0xb7, 0x3e, 0x9f, 0x82, 0xfc, 0xbd,
 0xad, 0xb6, 0xd5, 0xbe, 0xca, 0xbb, 0x96, 0x3e, 0xa6, 0xb4, 0xd1, 0xbd,
 0x83, 0x7a, 0xfe, 0x3d, 0xc8, 0x72, 0x73, 0xbc, 0xd4, 0x97, 0x25, 0xbe,
 0x1e, 0x69, 0x9b, 0xbd, 0xc1, 0xf6, 0x8b, 0x3d, 0x19, 0xe4, 0x8d, 0x3e,
 0xa9, 0x4f, 0xcb, 0x3e, 0x32, 0xa4, 0x9a, 0xbe, 0x21, 0x89, 0xaa, 0xbe,
 0x08, 0x1e, 0xdb, 0x3d, 0xa8, 0x3f, 0x38, 0xbe, 0x1f, 0xe2, 0x03, 0x3c,
 0x32, 0x55, 0x2e, 0xbe, 0x01, 0xea, 0x4c, 0xbe, 0x3b, 0xb4, 0x41, 0xbe,
 0xea, 0x3b, 0xbd, 0xbd, 0xa8, 0x56, 0x68, 0x3e, 0x02, 0xce, 0xfd, 0x3e,
 0x32, 0xee, 0xd1, 0xbe, 0xa2, 0x87, 0xac, 0xbe, 0xb9, 0x7b, 0x1a, 0x3e,
 0xe5, 0x93, 0x39, 0xbe, 0xc6, 0x21, 0x0a, 0x3e, 0x83, 0x35, 0xb8, 0xbd,
 0x3a, 0xf7, 0x89, 0x3d, 0x55, 0xf7, 0xa6, 0x3b, 0xdf, 0x5f, 0x9a, 0x3d,
 0xed, 0x0d, 0x4e, 0x3d, 0x36, 0x81, 0x69, 0xbd, 0x32, 0x06, 0x84, 0x3d,
 0x8d, 0x1d, 0x85, 0x3d, 0x07, 0x45, 0x62, 0xbd, 0xca, 0xda, 0x13, 0x3d,
 0xc1, 0x04, 0x6e, 0xbd, 0x1b, 0xb1, 0x4e, 0xbd, 0xd4, 0xd2, 0xf0, 0x3b,
 0x7c, 0x96, 0xa6, 0xbd, 0x31, 0x71, 0xc2, 0x3d, 0x52, 0x4d, 0x59, 0xbd,
 0x8c, 0x94, 0x80, 0xbd, 0x8b, 0x67, 0x8d, 0x3d, 0x9a, 0x3f, 0x91, 0xbd,
 0x44, 0x96, 0x88, 0x3c, 0xd8, 0x68, 0xc8, 0x3c, 0x5f, 0x1a, 0xe1, 0xbd,
 0x68, 0xe6, 0xdb, 0xbd, 0x84, 0x91, 0x77, 0xbd, 0x87, 0x94, 0xdd, 0xbd,
 0x6e, 0xac, 0x8c, 0xbd, 0xb6, 0x6d, 0xee, 0x3a, 0x9a, 0x66, 0x4e, 0x3d,
 0xcb, 0x35, 0xd8, 0xbd, 0xb5, 0x83, 0x2b, 0xbd, 0xf1, 0xac, 0xbf, 0xbc,
 0x44, 0xe6, 0xdd, 0xbd, 0x71, 0xf3, 0xde, 0xb8, 0x6e, 0x86, 0x13, 0xbd,
 0xaf, 0x54, 0x45, 0xbf, 0x5d, 0xb7, 0xd6, 0x3e, 0xd9, 0xf1, 0xbe, 0x3d,
 0xe2, 0xea, 0x0a, 0xbf, 0xf9, 0x65, 0x5c, 0x3e, 0x7e, 0xe0, 0xbd, 0x3e,
 0xa9, 0x9e, 0xbc, 0x3e, 0xdc, 0x37, 0xab, 0xbf, 0xb1, 0xc2, 0xc5, 0xbf,
 0xaf, 0x6f, 0xb9, 0xbf, 0xb7, 0x5d, 0xb7, 0xbf, 0x22, 0x39, 0x48, 0xbf,
 0xfa, 0xbf, 0xae, 0x3e, 0x1e, 0x7d, 0x17, 0x3d, 0xb3, 0xbc, 0x0b, 0xbf,
 0x02, 0x4c, 0x6b, 0x3e, 0xad, 0x1e, 0xdd, 0x3e, 0x9c, 0x12, 0xf1, 0x3e,
 0x73, 0xf5, 0xe9, 0xbf, 0x7a, 0x09, 0xcf, 0xbf, 0xf4, 0x7a, 0xe9, 0xbf,
 0x16, 0x47, 0xd6, 0xbf, 0xa0, 0xfb, 0x50, 0xbf, 0x75, 0xb5, 0xa7, 0x3e,
 0xf8, 0x87, 0x63, 0x3c, 0x1a, 0x17, 0x11, 0xbf, 0xfe, 0x40, 0x0a, 0x3e,
 0x50, 0xf2, 0xd6, 0x3e, 0x1e, 0xeb, 0xd8, 0x3e, 0xb3, 0xec, 0xd1, 0xbf,
 0xdb, 0xb2, 0x82, 0xbf, 0x85, 0xd6, 0xd0, 0xbf, 0x6d, 0x44, 0x85, 0xbf,
 0xea, 0xe4, 0x82, 0x3e, 0x0c, 0xb8, 0x53, 0x3f, 0x00, 0x86, 0xb0, 0x3c,
 0x7e, 0xcf, 0x0e, 0x3e, 0xfc, 0x5f, 0x1e, 0xc0, 0xc0, 0xa4, 0x4b, 0xbf,
 0x6d, 0xa0, 0x0a, 0x3d, 0x64, 0xd6, 0x6a, 0xbe, 0x66, 0x93, 0x07, 0x3d,
 0xf4, 0x74, 0x99, 0xbe, 0x5c, 0x1c, 0x57, 0x3e, 0x2a, 0xa4, 0x5d, 0x3e,
 0x3c, 0xcb, 0x6e, 0x3f, 0xdf, 0x47, 0xa7, 0x3d, 0x05, 0xcf, 0x1b, 0x3d,
 0xae, 0x21, 0x26, 0xc0, 0xdb, 0xa6, 0x1f, 0xbf, 0x3d, 0xc2, 0x32, 0x3e,
 0x51, 0xe5, 0x7c, 0xbe, 0x1b, 0x28, 0x84, 0x3c, 0x4a, 0xae, 0xe9, 0xbe,
 0x50, 0xa2, 0x9a, 0x3d, 0x84, 0x80, 0x62, 0x3e, 0x4e, 0x97, 0x5d, 0x3f,
 0x30, 0xfd, 0xff, 0x3b, 0xd9, 0x2d, 0x26, 0x3e, 0x06, 0xfd, 0x1c, 0xc0,
 0x5e, 0xa1, 0xe3, 0xbe, 0xdb, 0x33, 0x18, 0x3c, 0x1c, 0x6b, 0x56, 0xbe,
 0x2d, 0xe0, 0x19, 0x3d, 0xec, 0x0a, 0x9a, 0xbe, 0x04, 0x88, 0xc1, 0x3d,
 0xe2, 0x67, 0x6e, 0xbc, 0x0d, 0x8a, 0xb4, 0xbd, 0xe8, 0x37, 0x95, 0xbc,
 0xb7, 0xd0, 0xe8, 0xbb, 0xc3, 0x13, 0xd7, 0xbd, 0x7b, 0xdc, 0x79, 0x3d,
 0x92, 0xa7, 0x9d, 0x3c, 0xd4, 0x05, 0xc8, 0x3c, 0x87, 0xd0, 0xd6, 0xbd,
 0x0c, 0xf2, 0x00, 0x3d, 0x03, 0x47, 0x5f, 0xbd, 0x6d, 0xfe, 0xb7, 0x3c,
 0xd5, 0x01, 0xb4, 0x3d, 0xa6, 0x77, 0x41, 0x3d, 0x30, 0xd0, 0x35, 0xbd,
 0x6f, 0x34, 0x8b, 0xbd, 0x29, 0xb2, 0x7f, 0x3c, 0x43, 0x78, 0xa1, 0xbd,
 0x53, 0x44, 0x7e, 0x3d, 0xbd, 0x9d, 0xab, 0x3d, 0x34, 0xe0, 0x84, 0xbd,
 0xfd, 0x2b, 0x84, 0xbd, 0x9c, 0xc7, 0xc4, 0x3c, 0x35, 0xaf, 0xb3, 0x3d,
 0x1a, 0xde, 0x67, 0x3d, 0x23, 0x08, 0x49, 0xbd, 0xde, 0x85, 0x8f, 0x3c,
 0x24, 0x00, 0x84, 0xbb, 0x9c, 0x3a, 0xb5, 0xbd, 0x5a, 0xaf, 0x43, 0xbd,
 0xf5, 0x15, 0x76, 0xbc, 0x2e, 0x6a, 0x56, 0xbd, 0x86, 0x44, 0xcb, 0x3c,
 0xee, 0x64, 0x3a, 0x3d, 0x62, 0x42, 0xd9, 0xbd, 0x9b, 0xa2, 0x3e, 0xbd,
 0x17, 0x9f, 0xa6, 0xbd, 0xa8, 0x77, 0x93, 0xbc, 0x9d, 0xf6, 0xae, 0xbc,
 0x36, 0x97, 0xb2, 0xbc, 0xe0, 0xef, 0x5e, 0x3c, 0x40, 0x43, 0x64, 0x3d,
 0xfa, 0x77, 0x09, 0x3b, 0x9c, 0xcf, 0x17, 0xbd, 0xf0, 0x9e, 0x58, 0xbd,
 0x1f, 0xb2, 0x33, 0xbd, 0x1b, 0x73, 0xc6, 0x3d, 0x84, 0x93, 0x59, 0x3d,
 0xc4, 0x53, 0xb4, 0xbd, 0xe9, 0x4d, 0xee, 0xbb, 0x1b, 0x02, 0x6d, 0x3d,
 0xfc, 0x39, 0xb9, 0xbc, 0x06, 0xd3, 0xa2, 0xbd, 0x17, 0x8c, 0x5b, 0xbd,
 0x91, 0x89, 0x56, 0x3d, 0xeb, 0x69, 0x93, 0xbc, 0xb7, 0x8e, 0xaa, 0xbd,
 0x7e, 0xe2, 0x37, 0x3d, 0x9b, 0x11, 0xdd, 0xbd, 0x2c, 0xff, 0x94, 0x3d,
 0xb2, 0xe5, 0xa3, 0x3d, 0x6a, 0x99, 0xa4, 0xbc, 0x8a, 0x1b, 0x55, 0xbc,
 0xfe, 0x89, 0x8b, 0xbd, 0xa5, 0xa2, 0x51, 0xbd, 0x91, 0x4f, 0x53, 0xbd,
 0xc3, 0xe2, 0x8a, 0x3c, 0x1b, 0xfe, 0xfe, 0xbd, 0xef, 0xd5, 0x86, 0x3d,
 0x9c, 0x02, 0x05, 0x3f, 0x94, 0xf4, 0x88, 0x3e, 0xc7, 0x6d, 0x80, 0xbe,
 0x45, 0x0d, 0x94, 0xbe, 0x83, 0xf1, 0x9b, 0xbf, 0xf9, 0x5c, 0xa3, 0xbd,
 0x43, 0x7b, 0x8a, 0xbf, 0x9b, 0x70, 0xf1, 0x3d, 0x95, 0xbd, 0xba, 0xbd,
 0x12, 0xe9, 0xae, 0xbc, 0x9e, 0x2e, 0x6e, 0xbd, 0xd0, 0x40, 0x29, 0x3f,
 0x8f, 0xf6, 0x45, 0x3e, 0x95, 0x33, 0x75, 0xbe, 0xd7, 0x10, 0x3d, 0xbe,
 0x3e, 0x84, 0xa5, 0xbf, 0x4b, 0x2d, 0x0f, 0xbe, 0x8a, 0x1a, 0xad, 0xbf,
 0x7c, 0x77, 0xe2, 0xbd, 0x00, 0xb0, 0x8b, 0x3c, 0xc5, 0x56, 0xbd, 0xbd,
 0x28, 0xcb, 0x4b, 0xbc, 0x86, 0x55, 0x28, 0x3f, 0xc6, 0x97, 0x97, 0x3e,
 0x2b, 0x32, 0x2d, 0xbe, 0xdd, 0x90, 0x2f, 0xbe, 0x0a, 0xf9, 0xa1, 0xbf,
 0xca, 0xb8, 0x68, 0xbe, 0x7c, 0xf8, 0x7d, 0xbf, 0xdf, 0xe1, 0x25, 0xbe,
 0xfc, 0x7c, 0x53, 0x3e, 0x40, 0x9a, 0x36, 0xbe, 0x30, 0x10, 0x8b, 0x3c,
 0xd7, 0xa1, 0xc0, 0x3f, 0xb0, 0x3a, 0x66, 0xbc, 0x90, 0x91, 0x9a, 0xbe,
 0x99, 0x8c, 0xd7, 0xbe, 0x7a, 0xce, 0x57, 0x3e, 0x69, 0xd5, 0x14, 0xbf,
 0x31, 0x4e, 0xa4, 0x3e, 0x97, 0x7b, 0x15, 0xbf, 0x1d, 0xf7, 0x5f, 0x3e,
 0xcd, 0x7d, 0x98, 0xbe, 0x1c, 0x54, 0xb6, 0xbd, 0xf7, 0xea, 0xc4, 0x3f,
 0x91, 0xfc, 0x70, 0xbd, 0xf2, 0x81, 0x83, 0xbe, 0x49, 0x9b, 0x86, 0xbe,
 0xfe, 0x82, 0x90, 0x3e, 0x0c, 0xe8, 0x22, 0xbf, 0xaa, 0xd6, 0x0f, 0x3e,
 0x9b, 0x8b, 0x13, 0xbf, 0xe6, 0x2c, 0x08, 0x3e, 0x1c, 0xd9, 0xbe, 0xbe,
 0x27, 0x01, 0x60, 0xbd, 0xaa, 0x2b, 0xc6, 0x3f, 0x62, 0x6d, 0xf6, 0xbc,
 0xe9, 0x84, 0x7e, 0xbe, 0xdd, 0x62, 0x83, 0xbe, 0xb8, 0xe2, 0x54, 0x3e,
 0x20, 0x7e, 0xfb, 0xbe, 0xab, 0xe5, 0xac, 0x3e, 0x06, 0xb7, 0x0a, 0xbf,
 0x94, 0x7b, 0xe8, 0xbc, 0xe4, 0x0a, 0xab, 0xbd, 0x37, 0x61, 0xbd, 0x3d,
 0x16, 0xd0, 0xca, 0xbd, 0xbe, 0xbd, 0xb1, 0xbd, 0x83, 0x99, 0xf5, 0xbd,
 0x49, 0xa6, 0x6e, 0x3d, 0x0d, 0x83, 0x1e, 0xbd, 0xae, 0x66, 0x15, 0x3d,
 0xe3, 0x93, 0x58, 0x3c, 0x0c, 0x7b, 0x81, 0x3d, 0xb6, 0xe3, 0x25, 0x3c,
 0xd5, 0x86, 0xee, 0xbd, 0xe7, 0xa3, 0xc2, 0x3d, 0x8a, 0xca, 0x08, 0x3c,
 0x4a, 0x05, 0xa1, 0xbc, 0x2f, 0x69, 0xe2, 0xbd, 0x04, 0xf5, 0x84, 0x3d,
 0x15, 0xa7, 0x55, 0xbd, 0xe4, 0x84, 0x2e, 0xbd, 0xf6, 0x44, 0x89, 0xbb,
 0x2b, 0xc5, 0xf1, 0xbc, 0xb6, 0xb1, 0x13, 0x3d, 0xe3, 0x08, 0x16, 0x3b,
 0xf3, 0x74, 0x93, 0x3d, 0xee, 0x9c, 0xbc, 0xbd, 0xde, 0x05, 0x8a, 0x3d,
 0xaa, 0x8d, 0xf0, 0xbd, 0x60, 0x2b, 0x8d, 0x3c, 0x46, 0x05, 0x09, 0xbd,
 0x6a, 0x5a, 0x1a, 0xbc, 0x0b, 0xf3, 0x73, 0x3d, 0x7a, 0xcc, 0x02, 0xbc,
 0xc0, 0x4e, 0xf5, 0xbe, 0x9a, 0x09, 0x0b, 0xbf, 0xa1, 0xa5, 0xc4, 0x3d,
 0x17, 0x0b, 0x37, 0x3f, 0xb6, 0x61, 0xe4, 0xbe, 0xc6, 0xeb, 0x3e, 0xbe,
 0x12, 0x09, 0xe6, 0x3d, 0x5c, 0x9f, 0x05, 0xbf, 0x94, 0x94, 0x45, 0x3f,
 0x47, 0x3c, 0x12, 0xbf, 0x28, 0x0f, 0x5b, 0x3f, 0x76, 0x0d, 0xeb, 0xbe,
 0x43, 0xd3, 0x18, 0xbf, 0x06, 0x05, 0x5f, 0x3d, 0xc3, 0x97, 0x37, 0x3f,
 0x94, 0xa2, 0xa6, 0xbe, 0x6c, 0xdd, 0xaf, 0xbd, 0xea, 0xff, 0x8b, 0x3d,
 0xdf, 0xf9, 0x79, 0xbf, 0x64, 0x15, 0x3d, 0x3f, 0xfe, 0xd7, 0x7d, 0xbf,
 0x4e, 0x87, 0x1c, 0x3f, 0x0f, 0x5a, 0xc3, 0xbe, 0xe3, 0xca, 0x0c, 0xbf,
 0x39, 0x5b, 0x99, 0xbd, 0x63, 0x78, 0x0e, 0x3f, 0x9e, 0x4c, 0xe2, 0xbe,
 0xcc, 0x85, 0x9b, 0xbc, 0x9b, 0x94, 0x1d, 0x3d, 0x10, 0xec, 0x98, 0xbf,
 0xae, 0x37, 0x3e, 0x3f, 0xce, 0x9f, 0x79, 0xbf, 0xdd, 0xe4, 0x3a, 0x3f,
 0xf8, 0x7f, 0xb8, 0x3d, 0xde, 0x22, 0xa7, 0x3d, 0x4c, 0x2e, 0x2d, 0xbd,
 0x03, 0x91, 0xfd, 0x3e, 0x2e, 0xc8, 0x4c, 0x3e, 0x81, 0x5b, 0x4c, 0xbe,
 0xc2, 0xbc, 0x97, 0xbe, 0x41, 0x7d, 0x52, 0xbf, 0x78, 0x6e, 0x2d, 0xbf,
 0x74, 0x7e, 0x53, 0xbf, 0x4c, 0x6e, 0x27, 0xbf, 0x29, 0x0e, 0xe9, 0x3d,
 0x96, 0x81, 0x99, 0x3c, 0x40, 0xd6, 0xbc, 0xba, 0x9d, 0x62, 0x19, 0x3f,
 0x97, 0x0b, 0x51, 0x3e, 0x02, 0xe1, 0x50, 0xbe, 0xd8, 0x72, 0x84, 0xbe,
 0x11, 0xfb, 0x55, 0xbf, 0x36, 0x16, 0x5d, 0xbf, 0xb8, 0x8f, 0x5f, 0xbf,
 0x5d, 0x72, 0x46, 0xbf, 0x1b, 0xce, 0xc4, 0x3d, 0xff, 0xf0, 0x37, 0xbd,
 0x78, 0x67, 0x0a, 0xbd, 0xa4, 0xba, 0x0a, 0x3f, 0xfd, 0x5f, 0x93, 0x3e,
 0x15, 0x80, 0x8e, 0xbe, 0x80, 0x67, 0xab, 0xbe, 0x84, 0x6c, 0x35, 0xbf,
 0x36, 0x8f, 0x20, 0xbf, 0x12, 0x51, 0x0c, 0xbf, 0xcc, 0x7b, 0xf9, 0xbe,
 0xd7, 0x97, 0xb6, 0xbd, 0x96, 0x8f, 0x4a, 0x3d, 0xff, 0x64, 0xd0, 0xbd,
 0x63, 0x62, 0x07, 0xbc, 0x69, 0xd9, 0xa9, 0x3d, 0x1d, 0x1c, 0xa7, 0x3d,
 0x2e, 0x7e, 0x29, 0x3d, 0x79, 0xff, 0x60, 0x3d, 0xc2, 0x10, 0x7d, 0x3d,
 0x23, 0xe0, 0x8d, 0xbd, 0x57, 0x0f, 0xa3, 0xbb, 0xeb, 0x94, 0x29, 0xbd,
 0x1f, 0xd2, 0x51, 0xbd, 0x90, 0x24, 0xfd, 0xbb, 0x46, 0xdb, 0x14, 0x3d,
 0x60, 0x6f, 0x22, 0x3d, 0x0e, 0xc3, 0x6a, 0x3d, 0x83, 0x7a, 0x11, 0xbd,
 0xce, 0x13, 0x6d, 0xbd, 0xd2, 0xcd, 0x90, 0xbd, 0x1b, 0x70, 0xa9, 0x3d,
 0xca, 0xa8, 0xc4, 0xbd, 0x45, 0x3f, 0x9d, 0xbd, 0xdd, 0x6f, 0xf7, 0xbc,
 0x42, 0x02, 0xc3, 0xbd, 0x4a, 0x33, 0xc4, 0xbd, 0xeb, 0x7b, 0x82, 0xbd,
 0x91, 0xaa, 0x63, 0xbd, 0xaa, 0xb6, 0xcb, 0xbd, 0x7e, 0xa8, 0x4d, 0x3d,
 0xc8, 0x4e, 0x7d, 0xbd, 0xd0, 0xfc, 0xdb, 0xbc, 0xe0, 0x20, 0x0f, 0xbd,
 0xcf, 0x7a, 0x85, 0xbd, 0x8d, 0x88, 0x5d, 0x3d, 0xbe, 0x58, 0xb9, 0xbd,
 0xa7, 0x3a, 0xb4, 0xbd, 0xba, 0xa7, 0x35, 0x3c, 0x70, 0xa8, 0xcd, 0xbd,
 0xeb, 0x40, 0x0f, 0xbd, 0x18, 0xf3, 0xe0, 0xbd, 0x9d, 0xb5, 0x53, 0xbd,
 0xb3, 0x83, 0x8c, 0x3d, 0x45, 0x18, 0xa4, 0xbc, 0x8b, 0xbf, 0x77, 0x3d,
 0xd6, 0xca, 0xc8, 0xbd, 0x70, 0xc5, 0xe9, 0x3b, 0x3b, 0x9e, 0xe1, 0xb9,
 0xb1, 0xdd, 0x40, 0x3c, 0x17, 0xb1, 0x54, 0xbd, 0xe1, 0xda, 0xd8, 0xbc,
 0x62, 0xe4, 0x60, 0x3d, 0x22, 0x89, 0x20, 0x3d, 0xda, 0xa1, 0x5e, 0x3d,
 0xff, 0xcf, 0x55, 0xbd, 0xab, 0x37, 0x10, 0xbd, 0x31, 0xf3, 0x1f, 0xbd,
 0xaf, 0x21, 0xa3, 0x3d, 0x3e, 0xbd, 0xe7, 0xbd, 0xae, 0x85, 0xc0, 0xbd,
 0x1f, 0xed, 0xd1, 0xbc, 0xbb, 0x12, 0x8a, 0x3d, 0x33, 0xc8, 0xa9, 0xbd,
 0xd7, 0x66, 0xa7, 0xbd, 0xfe, 0xe5, 0xf1, 0xbc, 0x2d, 0x7d, 0x76, 0x3d,
 0x21, 0xdb, 0x15, 0xbd, 0x39, 0xcc, 0xd7, 0xbe, 0xba, 0x06, 0x4f, 0x3d,
 0xdd, 0xfb, 0xd1, 0xbf, 0x7b, 0x79, 0x0d, 0x3f, 0x93, 0x5d, 0x90, 0x3e,
 0xc8, 0xe5, 0xdb, 0x3e, 0x83, 0x56, 0xa1, 0xbe, 0x97, 0x1f, 0x6e, 0x3e,
 0xd0, 0x65, 0x05, 0xbe, 0x41, 0x1a, 0xc4, 0x3e, 0xbc, 0x7d, 0x6e, 0x3d,
 0xa5, 0x5f, 0xf5, 0xbe, 0x04, 0x4b, 0xa5, 0xbd, 0xda, 0xf8, 0xc0, 0xbf,
 0x58, 0x4e, 0x0d, 0x3f, 0x42, 0x64, 0xa8, 0x3e, 0xc9, 0x38, 0x8e, 0x3e,
 0xaf, 0x75, 0xf9, 0xbe, 0x50, 0x1e, 0x46, 0x3e, 0x74, 0x19, 0x86, 0xbe,
 0x0c, 0x05, 0x76, 0x3d, 0xe0, 0x1c, 0x9f, 0xbd, 0x93, 0x9c, 0x0f, 0xbf,
 0x4e, 0xb7, 0xcc, 0xbd, 0x43, 0xc2, 0xd0, 0xbf, 0x1d, 0x24, 0xf9, 0x3e,
 0x9a, 0x88, 0xf4, 0x3d, 0xb9, 0xcd, 0x41, 0x3e, 0x31, 0xcf, 0x2d, 0xbf,
 0x02, 0x2b, 0xb9, 0x3d, 0x00, 0xdf, 0x0d, 0xbf, 0x5e, 0x80, 0x6c, 0xbc,
 0x21, 0xfa, 0xdc, 0xbe, 0x4d, 0x70, 0x58, 0xbd, 0xba, 0xc5, 0x58, 0x3d,
 0xba, 0x1f, 0x85, 0x3f, 0x04, 0xeb, 0xd2, 0x3f, 0x14, 0x98, 0x90, 0xbc,
 0xc2, 0xc9, 0x42, 0xbf, 0x40, 0xdf, 0x70, 0x3f, 0x96, 0x5c, 0x0a, 0x3f,
 0xd2, 0x15, 0x95, 0x3f, 0x1f, 0x81, 0x49, 0x3f, 0x3c, 0xe5, 0x10, 0xbf,
 0xf9, 0x1c, 0x84, 0xbd, 0x73, 0xb7, 0xc6, 0x3d, 0xa0, 0xcf, 0x93, 0x3f,
 0x98, 0x43, 0xd5, 0x3f, 0x53, 0x6c, 0xd9, 0xbd, 0x0e, 0xaa, 0x35, 0xbf,
 0xef, 0xbb, 0x2f, 0x3f, 0xf8, 0xd2, 0x25, 0x3e, 0x06, 0x96, 0x37, 0x3f,
 0x41, 0x31, 0x86, 0x3e, 0x4d, 0xce, 0xdc, 0xbe, 0x3a, 0xd6, 0x45, 0xbe,
 0xf4, 0xe8, 0x36, 0xbd, 0x76, 0x8b, 0x8a, 0x3f, 0x03, 0xef, 0xe8, 0x3f,
 0x00, 0xa9, 0x1a, 0xbf, 0xaa, 0x20, 0x18, 0xbf, 0xec, 0x22, 0xdb, 0x3e,
 0xf6, 0x3d, 0x04, 0xbe, 0x4b, 0xc6, 0xf3, 0x3e, 0x3d, 0x71, 0x12, 0xbe,
 0x82, 0xdb, 0xff, 0xff, 0x04, 0x00, 0x00, 0x00, 0x08, 0x00, 0x00, 0x00,
 0x01, 0x00, 0x00, 0x00, 0x90, 0x00, 0x00, 0x00, 0x96, 0xdb, 0xff, 0xff,
 0x04, 0x00, 0x00, 0x00, 0x00, 0x24, 0x00, 0x00, 0x7f, 0xf0, 0x94, 0x3e,
 0x0e, 0xf9, 0xd7, 0xbd, 0xd0, 0x7b, 0xc9, 0x3c, 0xbd, 0xc1, 0xcf, 0x40,
 0x43, 0x16, 0x9a, 0x3f, 0x48, 0x6e, 0x2a, 0x3e, 0x0e, 0xcb, 0x2a, 0xbe,
 0xe9, 0x4a, 0x25, 0x3f, 0xa7, 0x21, 0xe7, 0x3d, 0x28, 0x3c, 0x35, 0xbd,
 0x26, 0xc2, 0x87, 0xbf, 0x93, 0x94, 0x4c, 0x3f, 0xc8, 0xe1, 0x43, 0xbe,
 0x28, 0xa1, 0xa8, 0xbc, 0x2e, 0x0b, 0x05, 0x40, 0xa5, 0x32, 0x92, 0xbf,
 0x6b, 0xb4, 0x67, 0x3e, 0x85, 0x7f, 0xe2, 0x3d, 0x78, 0x25, 0x04, 0xbe,
 0x87, 0xb7, 0x9f, 0x40, 0x91, 0x24, 0xa0, 0x3f, 0x1c, 0x6e, 0x5e, 0xbd,
 0x0a, 0xce, 0xb7, 0xbd, 0xf4, 0xb5, 0xa2, 0x3e, 0x5f, 0xbf, 0x0c, 0x3e,
 0xbc, 0xba, 0xf3, 0x3d, 0x01, 0xcf, 0x4e, 0xbf, 0x57, 0x63, 0x1a, 0x3f,
 0xd8, 0x2d, 0x0c, 0x3e, 0x2c, 0xaf, 0xf5, 0x3d, 0x4b, 0x42, 0xd2, 0x3f,
 0xe3, 0x3b, 0x74, 0xbf, 0x46, 0xda, 0xcb, 0x3d, 0x05, 0xa9, 0x04, 0x3e,
 0xbd, 0xd7, 0xde, 0xbd, 0x69, 0x5b, 0x91, 0x40, 0x37, 0xaa, 0xa0, 0x3f,
 0x98, 0x5e, 0x37, 0xbd, 0xef, 0xe1, 0xd3, 0xbd, 0x9b, 0x26, 0xb0, 0x3e,
 0x2c, 0xe4, 0x9d, 0xbc, 0xc2, 0x52, 0x35, 0x3e, 0xb5, 0xa1, 0x46, 0xbf,
 0xe6, 0x71, 0x12, 0x3f, 0x50, 0x0a, 0x21, 0xbe, 0xec, 0x6b, 0x87, 0xbd,
 0xee, 0x90, 0xe0, 0x3f, 0x32, 0x71, 0x63, 0xbf, 0xd6, 0x82, 0x70, 0xba,
 0xaa, 0x6b, 0x1b, 0x3d, 0xb0, 0xc4, 0x27, 0xbc, 0x8e, 0xc1, 0x87, 0x40,
 0x15, 0x3c, 0x9f, 0x3f, 0x00, 0x00, 0xff, 0x3d, 0x3a, 0xd4, 0x41, 0xbe,
 0xbb, 0x15, 0x25, 0x3e, 0x00, 0x1e, 0xb3, 0x3d, 0x50, 0x8d, 0xad, 0x3c,
 0xf5, 0x2a, 0x6f, 0xbe, 0x28, 0x87, 0xcd, 0x3e, 0x20, 0x2f, 0x8c, 0xbb,
 0x34, 0xa5, 0x10, 0xbd, 0xf2, 0xce, 0xc0, 0x3f, 0xbf, 0xe9, 0x58, 0xbf,
 0xae, 0xe3, 0x3a, 0xbe, 0xdb, 0xf7, 0xcb, 0xbd, 0xc0, 0x11, 0x53, 0x3c,
 0x4d, 0x2c, 0x90, 0x40, 0xdf, 0x8b, 0xba, 0x3f, 0x7a, 0xc9, 0x0c, 0xbe,
 0x00, 0xd3, 0x75, 0xba, 0xbf, 0x52, 0x6e, 0x3e, 0x10, 0x8f, 0x45, 0x3e,
 0xc0, 0x3f, 0x4d, 0xbd, 0xd7, 0xd3, 0x1f, 0xbe, 0x52, 0xa2, 0x50, 0x3f,
 0xa0, 0x25, 0x40, 0x3e, 0x6c, 0x90, 0x18, 0xbe, 0xb1, 0x93, 0x8a, 0x3f,
 0x46, 0x21, 0xa4, 0xbf, 0x2e, 0x7b, 0x89, 0xbd, 0x33, 0x40, 0x4e, 0x3e,
 0xd2, 0xd1, 0x0d, 0xbe, 0xcc, 0xfb, 0x76, 0x40, 0x94, 0xa7, 0xba, 0x3f,
 0x20, 0xfa, 0xa7, 0x3c, 0x43, 0x31, 0xd0, 0xbd, 0x44, 0x9e, 0x67, 0x3c,
 0x58, 0x32, 0xaa, 0xbd, 0xd5, 0x59, 0xca, 0xbd, 0xf6, 0x78, 0x7c, 0x3e,
 0x29, 0x40, 0x8e, 0x3e, 0x20, 0xc3, 0x53, 0xbc, 0x18, 0xc9, 0x97, 0x3d,
 0x1a, 0xe1, 0x94, 0x3f, 0xd3, 0xe4, 0x84, 0xbf, 0x78, 0x2a, 0xad, 0xbd,
 0x8d, 0xe7, 0x6f, 0xbd, 0x98, 0xf0, 0xdf, 0x3c, 0x40, 0xb3, 0x51, 0x40,
 0x9b, 0xaf, 0xa3, 0x3f, 0xa8, 0x6b, 0xd7, 0x3d, 0x0a, 0x1e, 0x3d, 0x3e,
 0xd7, 0xeb, 0x66, 0x3e, 0xdb, 0x58, 0x24, 0xbd, 0x68, 0x25, 0xab, 0x3c,
 0xbd, 0x84, 0xe1, 0x3d, 0x4b, 0xcd, 0xe1, 0x3e, 0x9a, 0xc2, 0x15, 0xbe,
 0x08, 0xe1, 0x12, 0x3e, 0xd0, 0x84, 0x81, 0x3f, 0x4b, 0x0b, 0xb9, 0xbf,
 0x1d, 0xf3, 0xdf, 0x3d, 0x0f, 0xb9, 0x18, 0xbe, 0x94, 0xf8, 0xba, 0x3d,
 0x7f, 0x24, 0x5c, 0x40, 0x56, 0x41, 0xa0, 0x3f, 0xec, 0x3e, 0x42, 0xbd,
 0xd9, 0x8d, 0x41, 0xbe, 0x63, 0x1a, 0xa2, 0x3d, 0xe5, 0xe4, 0x2e, 0xbe,
 0xb8, 0x2c, 0x35, 0x3d, 0x93, 0xb3, 0xa6, 0x3e, 0x77, 0x53, 0x2d, 0x3f,
 0x6c, 0x54, 0xb6, 0xbd, 0x7e, 0x8b, 0x2a, 0x3e, 0x49, 0x76, 0x79, 0x3f,
 0xc0, 0xdf, 0x78, 0xbf, 0x4c, 0x45, 0x8c, 0x3e, 0x3f, 0xfc, 0xaa, 0x3d,
 0x8c, 0xc8, 0xe0, 0xbd, 0x9e, 0xb8, 0x98, 0x40, 0x08, 0x99, 0xc1, 0x3f,
 0x60, 0xce, 0x8e, 0xbd, 0x7c, 0x32, 0xc7, 0x3d, 0xcf, 0x71, 0x85, 0xbe,
 0xd5, 0x2d, 0x94, 0x3c, 0xdc, 0x51, 0x7d, 0xbd, 0x52, 0xa7, 0xc7, 0x3e,
 0x4f, 0xe8, 0xdb, 0x3e, 0x7e, 0xcc, 0xec, 0xbd, 0x11, 0x67, 0x26, 0xbe,
 0x2e, 0x12, 0x8b, 0x3f, 0xd2, 0x93, 0x76, 0xbf, 0xf6, 0xde, 0x92, 0x3f,
 0x47, 0x82, 0x9c, 0x3d, 0xec, 0xd0, 0x19, 0x3e, 0x30, 0xa4, 0x41, 0xbf,
 0x9c, 0xf1, 0x6f, 0x3e, 0x7e, 0xca, 0xd9, 0x3d, 0x38, 0x94, 0x0c, 0x3e,
 0xe3, 0x04, 0x93, 0x3f, 0x99, 0x18, 0x41, 0xbf, 0x88, 0x83, 0x42, 0xbd,
 0xc5, 0x88, 0x34, 0x40, 0x6b, 0xbc, 0xed, 0x3f, 0xe7, 0x32, 0x24, 0xbe,
 0xe3, 0xfe, 0x52, 0x3e, 0x64, 0x0f, 0xb8, 0xbf, 0xb8, 0xdf, 0xa2, 0x3f,
 0x9f, 0x15, 0x13, 0x3f, 0xb2, 0x09, 0x9c, 0xbd, 0x4c, 0x2d, 0xde, 0x3d,
 0x4e, 0xca, 0xbb, 0xbe, 0x13, 0xd3, 0x61, 0x3e, 0x4b, 0xf3, 0x3d, 0x3e,
 0xbc, 0xdd, 0xbe, 0x3d, 0x53, 0x69, 0x72, 0x3f, 0x71, 0x20, 0x44, 0xbf,
 0xfa, 0xe0, 0x1d, 0x3e, 0x1c, 0x0a, 0x1b, 0x40, 0x4b, 0x36, 0xe6, 0x3f,
 0xab, 0x2a, 0x92, 0xbc, 0xd5, 0x6c, 0x40, 0xbc, 0xf0, 0x9b, 0x98, 0xbf,
 0xbe, 0xf8, 0x56, 0x3f, 0x89, 0x49, 0x23, 0x3e, 0x5c, 0x98, 0x2a, 0x3e,
 0xd4, 0xa6, 0x65, 0x3d, 0xa3, 0x62, 0x9a, 0x3e, 0xbd, 0x6c, 0xed, 0x3d,
 0x1d, 0xb8, 0xa4, 0x3d, 0x00, 0x4b, 0x9c, 0xbb, 0xa5, 0xe1, 0x8e, 0x3f,
 0xb7, 0xf3, 0x08, 0xbf, 0x60, 0xd8, 0x1e, 0x3c, 0x26, 0x29, 0xe8, 0x3f,
 0x75, 0x2a, 0xff, 0x3f, 0x33, 0xb1, 0xf6, 0x3d, 0x80, 0x72, 0x00, 0x3e,
 0x92, 0xfa, 0x34, 0xbf, 0x9c, 0xbe, 0x1d, 0x3f, 0x04, 0x04, 0xa1, 0x3d,
 0xae, 0x31, 0x1d, 0x3e, 0xf6, 0x21, 0xb8, 0xbd, 0x29, 0x3c, 0x14, 0xbe,
 0xda, 0x38, 0x0e, 0x3e, 0x02, 0x3d, 0x6d, 0x3d, 0xe0, 0xd6, 0xcf, 0x3d,
 0x47, 0x46, 0x67, 0x3f, 0xea, 0x89, 0xaa, 0xbe, 0x84, 0x1a, 0xf8, 0x3d,
 0xef, 0xc6, 0xda, 0x3f, 0xf4, 0x33, 0xd6, 0x3f, 0xf6, 0xde, 0x0e, 0xbe,
 0xc3, 0x8f, 0x34, 0x3e, 0x6c, 0xb7, 0x63, 0xbf, 0x8f, 0x63, 0x51, 0x3f,
 0x39, 0xec, 0x6e, 0xbe, 0xd9, 0x1b, 0xa5, 0xbd, 0x28, 0x35, 0x71, 0x3d,
 0xb6, 0x65, 0xbc, 0xbe, 0x6e, 0xfd, 0x51, 0x3e, 0x91, 0x90, 0xc9, 0xbd,
 0x67, 0x65, 0xca, 0xbd, 0x81, 0x0b, 0x8a, 0x3f, 0xc8, 0x13, 0xe3, 0xbe,
 0x7c, 0x1b, 0xed, 0x3d, 0x05, 0xad, 0xb5, 0x3f, 0xba, 0x51, 0xcd, 0x3f,
 0xf5, 0xda, 0x1f, 0x3e, 0xae, 0x8a, 0x41, 0x3e, 0xae, 0x53, 0x0b, 0xbe,
 0x69, 0x02, 0x43, 0x3f, 0xd0, 0xef, 0x0f, 0xbf, 0x1c, 0x37, 0x87, 0xbc,
 0xb0, 0x97, 0x7f, 0x3d, 0xea, 0xe2, 0xd5, 0xbe, 0xd6, 0xb4, 0x7c, 0xbe,
 0x19, 0x9e, 0x3a, 0x3e, 0xf0, 0x68, 0x3f, 0xbe, 0x9f, 0x07, 0xba, 0x3e,
 0x45, 0x74, 0x9b, 0xbe, 0x18, 0x5b, 0xc4, 0x3d, 0x3d, 0x70, 0x3f, 0x3f,
 0xcd, 0x42, 0xac, 0x3f, 0x9c, 0x6e, 0x23, 0xbe, 0x5d, 0xd1, 0x0e, 0x3d,
 0xdb, 0x00, 0x92, 0x3e, 0x4e, 0x4f, 0x44, 0x3d, 0x62, 0xd9, 0x66, 0xbf,
 0x9e, 0xd6, 0x34, 0x3e, 0xc0, 0x39, 0xfc, 0x3d, 0x01, 0x5b, 0xe3, 0xbd,
 0x0b, 0x98, 0x79, 0xbe, 0x39, 0x0f, 0x8f, 0x3d, 0x20, 0x6f, 0x55, 0x3d,
 0x9c, 0x12, 0xc5, 0x3e, 0xd5, 0x5e, 0x1e, 0xbe, 0x77, 0x16, 0x02, 0xbe,
 0xb7, 0x89, 0x45, 0x3f, 0x05, 0x79, 0xcb, 0x3f, 0x2e, 0xdf, 0xe6, 0x3c,
 0x04, 0x76, 0x1f, 0x3e, 0xe9, 0x58, 0x31, 0x3f, 0x80, 0x95, 0xb2, 0x3e,
 0xb6, 0x86, 0x94, 0xbf, 0x08, 0xe4, 0x75, 0x3e, 0x9c, 0x08, 0xd3, 0xbd,
 0x09, 0x8e, 0x8b, 0x3b, 0xff, 0xe2, 0x01, 0xbf, 0x61, 0x4f, 0x49, 0xbe,
 0x30, 0xed, 0x09, 0x3c, 0xa0, 0x57, 0x56, 0x3f, 0x1c, 0xf9, 0x65, 0xbe,
 0x80, 0x7c, 0xa4, 0x3a, 0xd0, 0xe2, 0xb7, 0x3e, 0xde, 0x9d, 0xce, 0x3f,
 0x02, 0xd4, 0x18, 0xbe, 0x7b, 0x77, 0xce, 0xbc, 0x0d, 0x14, 0xbf, 0x3f,
 0xab, 0xc4, 0x33, 0xbe, 0xe4, 0x91, 0x9b, 0xbf, 0x88, 0xa7, 0x68, 0x3d,
 0x68, 0xd0, 0x0e, 0xbe, 0x93, 0xe3, 0x92, 0xbe, 0x93, 0xe3, 0x1a, 0xbf,
 0x44, 0xb0, 0xf1, 0x3c, 0xbc, 0xac, 0x2c, 0x3e, 0xa7, 0xfc, 0xa5, 0x3f,
 0x73, 0xfe, 0x2e, 0x3d, 0xc8, 0x06, 0x30, 0xbe, 0x0a, 0xd1, 0x9c, 0x3e,
 0x59, 0x5d, 0xb1, 0x3f, 0xb7, 0x4c, 0x3e, 0xbc, 0x18, 0x73, 0x1e, 0xbe,
 0x29, 0x63, 0x09, 0x40, 0x1e, 0x38, 0x9c, 0xbe, 0x92, 0x18, 0x19, 0x3e,
 0x01, 0xca, 0x01, 0x3b, 0x65, 0x79, 0x5d, 0x3d, 0x93, 0xc0, 0x93, 0xbf,
 0xf7, 0x2f, 0x6e, 0xbf, 0x52, 0x21, 0x07, 0xbe, 0x51, 0x4a, 0xe2, 0x3d,
 0xa0, 0x46, 0xc6, 0x3e, 0x72, 0xda, 0x0c, 0x3f, 0x94, 0x26, 0x3a, 0x3e,
 0xd9, 0xff, 0xbf, 0x3f, 0xbc, 0x58, 0x74, 0x3e, 0xa2, 0x0d, 0xba, 0xbd,
 0xf1, 0x7a, 0x2c, 0xbe, 0x2f, 0xc9, 0xb7, 0xbf, 0x57, 0xb2, 0x06, 0x3f,
 0x22, 0x77, 0xcf, 0xbe, 0xd6, 0xca, 0x93, 0xbe, 0xa0, 0xa8, 0x00, 0x3e,
 0x9d, 0xec, 0x4c, 0xbf, 0xfa, 0x48, 0x9f, 0xbf, 0x14, 0x0f, 0x90, 0x3d,
 0xb8, 0x21, 0x68, 0x3d, 0xd2, 0xd4, 0x65, 0x3f, 0xbf, 0x5e, 0x44, 0x3f,
 0x20, 0x01, 0x8c, 0x3d, 0x0b, 0xfa, 0xac, 0x3f, 0xd4, 0x81, 0x17, 0x3f,
 0x7c, 0x81, 0x1e, 0xbe, 0x22, 0x44, 0xff, 0x3d, 0x42, 0x45, 0xa2, 0xbf,
 0xe1, 0xd0, 0x12, 0x3c, 0xdf, 0x75, 0x10, 0xbf, 0x1a, 0xb4, 0x93, 0xbe,
 0x04, 0x51, 0x86, 0xbd, 0x60, 0x26, 0xb4, 0xbe, 0x39, 0x3f, 0x73, 0xbf,
 0xf2, 0x71, 0x39, 0x3e, 0x63, 0x82, 0x31, 0x3e, 0xfe, 0x72, 0x4c, 0x3f,
 0x5a, 0x14, 0x20, 0x3f, 0x28, 0xe9, 0x84, 0x3d, 0xd7, 0xf3, 0xad, 0x3f,
 0x58, 0xe2, 0x21, 0x3f, 0x49, 0xac, 0xac, 0xbb, 0x41, 0x9a, 0x8a, 0xbd,
 0x84, 0x0d, 0xa2, 0xbf, 0x43, 0x61, 0xaf, 0x3e, 0x72, 0x84, 0x0f, 0xbf,
 0x63, 0xdb, 0x16, 0xbe, 0xfb, 0x38, 0xbe, 0xbd, 0x41, 0xd9, 0x16, 0xbf,
 0xc9, 0x45, 0x99, 0xbf, 0xe5, 0x31, 0x3a, 0xbe, 0xf5, 0x0b, 0x92, 0x3d,
 0x93, 0x2c, 0x84, 0x3f, 0xdd, 0xdc, 0xb6, 0x3e, 0x08, 0x21, 0x8a, 0xbc,
 0x9a, 0x43, 0xd3, 0x3f, 0xf0, 0xcf, 0xf0, 0x3e, 0x4b, 0x3e, 0x3f, 0x3d,
 0x2b, 0x3c, 0xb5, 0x3d, 0x4c, 0x45, 0x4e, 0xbf, 0xe3, 0xcd, 0x0d, 0x3f,
 0x9a, 0xf6, 0xd0, 0x3c, 0x91, 0xee, 0x56, 0xbd, 0xc0, 0xe8, 0x73, 0x3d,
 0xd8, 0x48, 0xe3, 0xbe, 0x93, 0xcf, 0x4e, 0xbf, 0x2c, 0xe4, 0xc3, 0xbd,
 0x58, 0x8e, 0x3e, 0x3d, 0x10, 0x2e, 0x9f, 0x3f, 0x44, 0x90, 0x9c, 0x3e,
 0x64, 0x54, 0x24, 0xbd, 0xc5, 0x4c, 0xc9, 0x3f, 0x62, 0x46, 0x26, 0x3f,
 0x8d, 0x85, 0x53, 0x3c, 0x90, 0x74, 0x07, 0xbd, 0xea, 0x83, 0xdc, 0xbe,
 0x94, 0x45, 0x96, 0x3d, 0x3f, 0x74, 0x9d, 0x3e, 0xcb, 0x88, 0xcd, 0xbd,
 0x70, 0xa4, 0xc6, 0x3d, 0x10, 0x65, 0x73, 0xbf, 0xbf, 0xf5, 0x7c, 0xbf,
 0xb7, 0xcd, 0x1d, 0x3d, 0xb6, 0xfe, 0xb5, 0x3c, 0xa5, 0x3a, 0x7c, 0x3f,
 0x73, 0xc5, 0x93, 0x3e, 0x90, 0x6f, 0xd4, 0xbd, 0xa9, 0x34, 0x74, 0x3f,
 0xfd, 0x1f, 0x31, 0x3e, 0xa7, 0x8f, 0x0f, 0xbd, 0x56, 0xac, 0xa5, 0x3d,
 0x1e, 0x29, 0x5c, 0xbd, 0x24, 0xec, 0x5c, 0xbd, 0xe5, 0x58, 0x19, 0xbe,
 0x54, 0x89, 0xba, 0xbd, 0x28, 0x71, 0x2b, 0x3c, 0x4c, 0x5a, 0x12, 0xbf,
 0x1a, 0x11, 0x73, 0xbf, 0x9a, 0x4c, 0xa9, 0x3d, 0x86, 0x4f, 0x2b, 0xbe,
 0x4c, 0xf5, 0x9e, 0x3f, 0x1b, 0x74, 0xaf, 0x3e, 0xbc, 0xb5, 0xef, 0x3d,
 0x9d, 0x26, 0x49, 0x3f, 0x88, 0x05, 0xf0, 0x3e, 0x67, 0xa2, 0x2f, 0xbe,
 0x88, 0x49, 0x2b, 0x3c, 0x1b, 0x25, 0xcc, 0xbd, 0x0f, 0x97, 0x88, 0x3e,
 0x70, 0x85, 0x98, 0xbe, 0xc4, 0x24, 0x8b, 0xbe, 0x2c, 0x2e, 0x91, 0xbc,
 0x2f, 0x6f, 0x0a, 0xbc, 0xbb, 0x72, 0x8c, 0xbf, 0x87, 0x39, 0x17, 0x3e,
 0xa2, 0xc4, 0x2e, 0x3d, 0xbc, 0x73, 0x8e, 0x3f, 0xb1, 0xd2, 0xbb, 0x3e,
 0x22, 0x15, 0xcf, 0xbd, 0x06, 0x02, 0xbf, 0x3e, 0x63, 0x07, 0x5e, 0x3f,
 0x8a, 0x99, 0xbd, 0xbd, 0x48, 0x52, 0x2f, 0x3e, 0x24, 0xd0, 0x1a, 0x3d,
 0xfd, 0x5d, 0x94, 0x3e, 0x64, 0x0f, 0x26, 0xbd, 0x14, 0xca, 0x65, 0xbe,
 0xa6, 0x0a, 0x05, 0x3e, 0xa7, 0x88, 0x18, 0x3e, 0x07, 0x19, 0x80, 0xbf,
 0x5f, 0x98, 0x18, 0xbe, 0x6f, 0x81, 0x20, 0xbe, 0x76, 0xd0, 0x94, 0x3f,
 0x75, 0xf8, 0x0d, 0x3f, 0x0f, 0xfb, 0x2b, 0xbe, 0xde, 0xe3, 0x5d, 0x3f,
 0x23, 0x8e, 0x01, 0x3f, 0x6c, 0x5f, 0xb4, 0x3d, 0x09, 0x57, 0xbc, 0xbd,
 0x69, 0x49, 0xfa, 0x3e, 0x8c, 0xd4, 0xec, 0x3e, 0x3e, 0xda, 0xf3, 0xbd,
 0xba, 0x7e, 0x55, 0xbe, 0x4c, 0x50, 0x09, 0x3d, 0x9f, 0x11, 0x38, 0xbc,
 0x13, 0x19, 0xc9, 0xbd, 0x66, 0x9a, 0x96, 0x3d, 0x51, 0xef, 0x16, 0xbe,
 0xd8, 0x61, 0x20, 0xbc, 0xb9, 0xb6, 0xe6, 0x3d, 0x84, 0xac, 0x3d, 0xbd,
 0xe1, 0x80, 0x2a, 0xbd, 0x2c, 0x59, 0x21, 0xbe, 0x18, 0x30, 0xdf, 0xbc,
 0x6c, 0xee, 0x35, 0xbd, 0x3f, 0xa2, 0xf6, 0xbd, 0xb6, 0xe4, 0xc4, 0xbd,
 0xaf, 0xf3, 0x56, 0xbe, 0xc3, 0x91, 0x14, 0x3d, 0xc4, 0x49, 0xde, 0xbc,
 0xdd, 0xb7, 0x0f, 0x3e, 0x84, 0x1f, 0x0d, 0x3e, 0x4f, 0xa2, 0x25, 0x3e,
 0xb0, 0x66, 0x8b, 0xbd, 0x8c, 0x80, 0x35, 0x3d, 0x30, 0x1c, 0x28, 0xbd,
 0xa6, 0x08, 0x8b, 0xbd, 0xfa, 0x7f, 0x91, 0xbd, 0x75, 0xc7, 0xe7, 0xbc,
 0x22, 0x56, 0x81, 0xbd, 0xd0, 0x5e, 0xea, 0x3d, 0x1f, 0x99, 0xea, 0xbd,
 0x54, 0xa7, 0x06, 0x3e, 0x7a, 0xd1, 0x79, 0xbd, 0x00, 0xd4, 0x36, 0xbe,
 0x31, 0x8d, 0xed, 0xbd, 0xb1, 0x8a, 0xe0, 0xbd, 0xa0, 0x8c, 0x8b, 0x3d,
 0xcc, 0x70, 0x40, 0xbe, 0xd0, 0xb3, 0xa9, 0x3d, 0x01, 0x5b, 0x90, 0x3d,
 0x7b, 0xba, 0x1e, 0xbe, 0x14, 0xf0, 0x8b, 0x3d, 0xf6, 0x66, 0xec, 0x3c,
 0xb3, 0xf2, 0xf3, 0xbb, 0xbb, 0x52, 0x8e, 0xbd, 0x5b, 0xcc, 0x23, 0xbe,
 0x72, 0x99, 0xb9, 0xbd, 0xa3, 0xaa, 0x71, 0x3c, 0x22, 0x32, 0xfc, 0xbd,
 0x6d, 0x65, 0xf8, 0xbd, 0xf0, 0xbe, 0xdd, 0xbd, 0xd1, 0x26, 0xfd, 0xbd,
 0x88, 0x25, 0x83, 0x3d, 0x9e, 0xeb, 0x15, 0x3e, 0x34, 0xc7, 0x8d, 0xbd,
 0x14, 0xbd, 0xfe, 0xbd, 0xc9, 0xdd, 0x69, 0x3c, 0x60, 0x12, 0x91, 0xbb,
 0x36, 0xb9, 0x91, 0x3c, 0xae, 0x9c, 0x4b, 0xbe, 0x82, 0xb9, 0x82, 0xbd,
 0x00, 0xda, 0x06, 0xba, 0xe2, 0xef, 0x13, 0x3e, 0x16, 0x43, 0xda, 0xbd,
 0xb6, 0x3b, 0x96, 0x3d, 0xb2, 0x2c, 0xf2, 0x3d, 0x20, 0x67, 0xa6, 0xbd,
 0x04, 0xda, 0x1a, 0xbe, 0xca, 0x06, 0x93, 0xbd, 0x45, 0xb0, 0x25, 0x3e,
 0x28, 0xa8, 0x1c, 0xbd, 0x47, 0x72, 0xbc, 0xbd, 0xc0, 0xfd, 0x3a, 0xbe,
 0x4a, 0xf2, 0x0a, 0x3e, 0x6e, 0x24, 0x75, 0xbc, 0x89, 0x73, 0x58, 0x3d,
 0x46, 0x0b, 0x00, 0x3e, 0x18, 0xdf, 0x34, 0x3e, 0xe3, 0xf6, 0xc6, 0xbd,
 0x53, 0x67, 0x3f, 0xbe, 0x3a, 0x6d, 0xa3, 0xbd, 0xb0, 0xa3, 0x0e, 0x3d,
 0x87, 0xfe, 0x85, 0x3d, 0xac, 0xe2, 0x94, 0xbd, 0x9c, 0x2e, 0xc7, 0xbd,
 0x70, 0x79, 0xac, 0x3d, 0xab, 0x79, 0x09, 0xbe, 0x4a, 0x6a, 0xcb, 0x3d,
 0xb9, 0xc8, 0x67, 0xbe, 0x5f, 0x43, 0x31, 0xbe, 0x28, 0xf2, 0xe5, 0xbd,
 0xf0, 0x09, 0xed, 0x3d, 0xd8, 0x68, 0xe6, 0x3d, 0xdf, 0x47, 0x1f, 0xbe,
 0xf0, 0x14, 0x67, 0xbc, 0xdc, 0xde, 0x5a, 0xbd, 0xc7, 0x4c, 0x0b, 0x3e,
 0xb8, 0xf5, 0xe0, 0x3d, 0xb5, 0x4b, 0xd3, 0x3d, 0x31, 0x3b, 0x48, 0xbe,
 0x36, 0x8a, 0x88, 0xbd, 0x66, 0x1a, 0x2a, 0x3e, 0x94, 0xec, 0x1b, 0x3e,
 0xe1, 0xe9, 0xfd, 0x3c, 0x53, 0x03, 0x84, 0xbd, 0xc8, 0xe2, 0x02, 0x3d,
 0x7a, 0x15, 0xde, 0xbd, 0xc2, 0x8c, 0x4c, 0xbd, 0x20, 0x42, 0x34, 0x3e,
 0xf6, 0x63, 0x27, 0x3e, 0x94, 0xab, 0x21, 0xbd, 0xdc, 0xab, 0xb5, 0x3c,
 0x14, 0x32, 0x5a, 0xbd, 0x24, 0xbc, 0x84, 0x3d, 0x27, 0x6b, 0x15, 0xbe,
 0xce, 0xd9, 0x68, 0x3d, 0x00, 0xe4, 0xca, 0xba, 0xac, 0xc6, 0x29, 0x3e,
 0xa0, 0x54, 0xa0, 0x3d, 0x55, 0x3d, 0x05, 0xbe, 0x2c, 0x1f, 0xb2, 0x3d,
 0xa3, 0x04, 0xcd, 0xbd, 0x03, 0x2f, 0xfb, 0xbc, 0x6a, 0xeb, 0x9b, 0x3d,
 0x10, 0xb4, 0xa7, 0x3d, 0x0c, 0x48, 0x16, 0x3d, 0x78, 0xf7, 0xe2, 0x3c,
 0x6c, 0x96, 0x92, 0x3d, 0x77, 0xec, 0xbf, 0x3b, 0x6d, 0x0b, 0x33, 0x3c,
 0x9e, 0xa6, 0x51, 0x3b, 0x6c, 0xc9, 0x1b, 0xbe, 0xaa, 0xbc, 0x1f, 0xbe,
 0x24, 0x5b, 0x48, 0x3d, 0x26, 0x78, 0xbb, 0xbd, 0xd3, 0x68, 0x59, 0x3d,
 0x31, 0xe3, 0x1c, 0x3e, 0xd0, 0x81, 0x6f, 0x3c, 0xa9, 0xf9, 0x50, 0xbe,
 0xa7, 0x9c, 0x21, 0xbd, 0x78, 0x71, 0xcd, 0xbd, 0x7e, 0xbf, 0x1b, 0xbe,
 0xb4, 0x12, 0xdf, 0x3d, 0xa9, 0xd1, 0x51, 0xbe, 0x97, 0xfe, 0xe9, 0xbe,
 0x49, 0xd5, 0xac, 0xbe, 0x56, 0xed, 0x0c, 0x3e, 0xf2, 0xe1, 0x74, 0x40,
 0x8a, 0xdd, 0x2e, 0x40, 0x84, 0xf0, 0xd2, 0xbd, 0xa2, 0x4e, 0x22, 0xbe,
 0x6e, 0x37, 0xa9, 0x3f, 0x1c, 0x94, 0xd6, 0xbf, 0xd6, 0x2c, 0x0e, 0xbe,
 0x30, 0xdd, 0x6d, 0x3f, 0x29, 0x65, 0xdc, 0x3f, 0x8c, 0xe5, 0xe1, 0x3c,
 0x4a, 0x26, 0xb1, 0xbd, 0x4d, 0xd0, 0xb7, 0x3f, 0x31, 0x8e, 0x0a, 0xbf,
 0x24, 0x14, 0xd9, 0xbe, 0x2d, 0x5f, 0xcb, 0xbd, 0x38, 0xe9, 0x11, 0xbe,
 0x7f, 0x22, 0x18, 0x40, 0xdb, 0x62, 0x15, 0x40, 0x84, 0xd0, 0x14, 0x3e,
 0x19, 0xcd, 0x34, 0x3e, 0x13, 0x15, 0xb8, 0x3f, 0xf1, 0x26, 0xdc, 0xbf,
 0x76, 0x68, 0xa2, 0x3c, 0x8e, 0x77, 0xf8, 0x3e, 0x10, 0xee, 0xb4, 0x3f,
 0xb2, 0x09, 0x19, 0x3e, 0xea, 0x2a, 0x89, 0xbd, 0x84, 0xa0, 0xb0, 0x3f,
 0xd7, 0x92, 0xe7, 0xbe, 0x31, 0xa2, 0xc9, 0xbe, 0xfc, 0x54, 0x0b, 0xbe,
 0x6c, 0xaa, 0xfe, 0x3d, 0x51, 0xf6, 0x02, 0x40, 0x4a, 0x44, 0x0b, 0x40,
 0x1b, 0xab, 0x3e, 0xbe, 0x1f, 0x99, 0x03, 0xbc, 0x70, 0xb8, 0xa0, 0x3f,
 0x66, 0x6a, 0xab, 0xbf, 0x4f, 0x20, 0x96, 0x3d, 0xa2, 0x27, 0x11, 0x3f,
 0xef, 0x35, 0xb2, 0x3f, 0x19, 0xe0, 0x35, 0xbe, 0xeb, 0xbb, 0x06, 0xbe,
 0xc4, 0x79, 0x95, 0x3f, 0x83, 0xff, 0x2e, 0xbf, 0x01, 0x8f, 0xa2, 0xbe,
 0x9d, 0x84, 0x7c, 0xbe, 0x6c, 0x0b, 0xf7, 0xbd, 0x36, 0x7f, 0x03, 0x40,
 0xd1, 0x28, 0xe6, 0x3f, 0xa0, 0x40, 0x07, 0x3e, 0x87, 0x5a, 0x26, 0x3e,
 0x7b, 0x71, 0x96, 0x3f, 0x7b, 0xb2, 0x93, 0xbf, 0x23, 0x17, 0xa1, 0xbd,
 0x04, 0x64, 0xef, 0x3e, 0xef, 0x17, 0xb1, 0x3f, 0xd2, 0x70, 0x2c, 0x3d,
 0xc0, 0x30, 0xaf, 0x3b, 0xf3, 0xed, 0x62, 0x3f, 0x7f, 0x35, 0x1b, 0xbf,
 0x13, 0xd2, 0xe4, 0xbe, 0x63, 0x7b, 0xe0, 0xbd, 0x08, 0x41, 0x97, 0x3d,
 0xee, 0xe0, 0x05, 0x40, 0x70, 0x8f, 0xcd, 0x3f, 0x4c, 0xfd, 0x3a, 0x3e,
 0x77, 0x78, 0x24, 0xbe, 0x1e, 0x4c, 0x89, 0x3f, 0xb9, 0xf3, 0x36, 0xbf,
 0xa8, 0xa6, 0x1d, 0x3e, 0xb6, 0x64, 0x0d, 0x3f, 0xf5, 0xe9, 0x9a, 0x3f,
 0x5d, 0x3f, 0x27, 0x3e, 0xe8, 0x37, 0x78, 0x3d, 0x74, 0xb9, 0x2c, 0x3f,
 0xfe, 0xfd, 0x27, 0xbf, 0x74, 0xe0, 0x9f, 0xbe, 0x06, 0x00, 0x4d, 0xbe,
 0x38, 0x33, 0xe6, 0x3d, 0xe9, 0x81, 0xff, 0x3f, 0x5f, 0x30, 0xc8, 0x3f,
 0xab, 0x1a, 0x1a, 0x3e, 0x10, 0xba, 0x30, 0x3e, 0x28, 0x2a, 0x8d, 0x3f,
 0xe3, 0xe0, 0x2c, 0xbf, 0xcc, 0x4c, 0x82, 0x3d, 0xc6, 0xea, 0x8a, 0x3f,
 0xa4, 0x31, 0x9f, 0x3f, 0x57, 0xe9, 0xa1, 0x3d, 0x18, 0xe0, 0xed, 0xbc,
 0xa8, 0xac, 0x68, 0x3e, 0xc8, 0xf7, 0x32, 0xbf, 0xcb, 0x13, 0x4e, 0xbd,
 0x5a, 0x29, 0x05, 0xbf, 0xcc, 0xac, 0x0e, 0x3e, 0xe3, 0xbf, 0xe2, 0x3f,
 0xe5, 0x27, 0xd0, 0x3f, 0xcf, 0x78, 0x4c, 0xbd, 0xa8, 0x1c, 0x97, 0xbd,
 0x21, 0x70, 0x84, 0x3f, 0xe4, 0xa5, 0x46, 0xbf, 0xce, 0x32, 0x09, 0x3e,
 0x8a, 0x72, 0x97, 0x3f, 0xde, 0xde, 0x9f, 0x3f, 0x93, 0x60, 0x2d, 0xbe,
 0xea, 0xb6, 0x44, 0xbe, 0x71, 0x96, 0xa0, 0x3e, 0x0d, 0xeb, 0x45, 0xbf,
 0x6d, 0x7b, 0xdf, 0x3e, 0xfc, 0x46, 0x0a, 0xbf, 0xa0, 0xa4, 0xb1, 0xbb,
 0x5d, 0xa8, 0xbb, 0x3f, 0xd7, 0x11, 0xe3, 0x3f, 0x45, 0x6e, 0xb0, 0xbd,
 0xf3, 0xfa, 0xca, 0x3d, 0xbb, 0xd0, 0x5d, 0x3f, 0xed, 0xe0, 0x04, 0xbf,
 0x32, 0x69, 0x6f, 0xbd, 0x22, 0x62, 0xaf, 0x3f, 0xda, 0x99, 0x97, 0x3f,
 0x6d, 0xff, 0xe8, 0xbd, 0x38, 0x5d, 0xf7, 0xbc, 0x9d, 0xf1, 0x05, 0x3f,
 0x69, 0x5f, 0x8c, 0xbf, 0xa3, 0x98, 0xbd, 0x3f, 0xe5, 0x65, 0xd8, 0xbe,
 0x30, 0x84, 0xa1, 0x3d, 0x41, 0x5d, 0x0c, 0x40, 0xd3, 0x1a, 0xbb, 0x3f,
 0x8a, 0xe6, 0x01, 0x3d, 0x66, 0x03, 0xfe, 0x3d, 0x12, 0xad, 0x62, 0x3f,
 0x10, 0x72, 0x3a, 0xbf, 0xf8, 0x71, 0x89, 0xbc, 0x47, 0x99, 0xa0, 0x3f,
 0xb2, 0xc5, 0xdf, 0x3f, 0xdf, 0x9b, 0xa3, 0xbd, 0xc0, 0xfa, 0x05, 0x3c,
 0xb4, 0x3d, 0x8d, 0x3f, 0x78, 0x84, 0x87, 0xbf, 0x9e, 0x65, 0x00, 0xbf,
 0x85, 0xb8, 0x07, 0xbe, 0xd4, 0xc5, 0x53, 0xbd, 0x2a, 0x3c, 0x8f, 0x40,
 0x53, 0x0a, 0xb2, 0x3f, 0x7b, 0x98, 0x1d, 0xbe, 0x8c, 0xbb, 0xd0, 0x3d,
 0x8e, 0x67, 0x2d, 0x3f, 0x27, 0xd9, 0x85, 0xbf, 0xa3, 0x0f, 0x3e, 0xbe,
 0x1e, 0x5f, 0x37, 0xbf, 0x6f, 0xb4, 0x87, 0x3f, 0xf0, 0xf1, 0x48, 0x3c,
 0xd9, 0x95, 0x21, 0xbe, 0xd3, 0x9c, 0x95, 0x3f, 0xb4, 0x17, 0xf8, 0xbe,
 0x1a, 0xca, 0x27, 0xbf, 0xe2, 0x5a, 0x24, 0x3e, 0xb0, 0xdf, 0xf6, 0x3d,
 0xdd, 0x4e, 0x55, 0x40, 0xf5, 0xa9, 0xaa, 0x3f, 0xf8, 0xb1, 0xa2, 0xbd,
 0x68, 0x2b, 0xf7, 0x3d, 0x17, 0x47, 0x30, 0x3f, 0x32, 0xf2, 0x7b, 0xbf,
 0x36, 0xa8, 0xc3, 0x3d, 0xa1, 0xf4, 0x65, 0xbe, 0xf7, 0x1d, 0x60, 0x3f,
 0x6c, 0x43, 0xd1, 0x3d, 0xd0, 0x56, 0x0e, 0x3d, 0x04, 0xbe, 0x65, 0x3f,
 0x73, 0x29, 0x3c, 0xbe, 0xee, 0x6e, 0x00, 0xbf, 0x7f, 0x05, 0x34, 0xbe,
 0x12, 0xab, 0x91, 0xbd, 0x21, 0xcf, 0x1d, 0x40, 0x8f, 0xde, 0xa8, 0x3f,
 0xc8, 0xed, 0x06, 0xbd, 0x0e, 0x09, 0x1b, 0x3e, 0x2d, 0x9e, 0x65, 0xbe,
 0x4a, 0x3f, 0x56, 0xbf, 0x17, 0x82, 0x50, 0xbe, 0x01, 0xd7, 0x80, 0xbd,
 0xa1, 0x62, 0x68, 0x3f, 0xf8, 0x26, 0xd5, 0x3d, 0x50, 0x37, 0x22, 0x3c,
 0x87, 0xcf, 0x0c, 0x3f, 0x7e, 0xf2, 0xa8, 0xbd, 0x1b, 0x85, 0x70, 0xbe,
 0x8f, 0x3b, 0x36, 0xbd, 0x88, 0xef, 0x3a, 0x3e, 0x6a, 0xeb, 0x40, 0x40,
 0xc8, 0xdd, 0xa1, 0x3f, 0xbc, 0x79, 0x42, 0x3e, 0x80, 0x9c, 0xb8, 0xbb,
 0x08, 0x22, 0x96, 0x3d, 0x79, 0xd2, 0x23, 0xbf, 0x2b, 0x47, 0xd5, 0x3b,
 0xcc, 0xe3, 0x0e, 0x3f, 0x1f, 0xff, 0x68, 0x3f, 0x80, 0xe4, 0xe3, 0xbc,
 0x5c, 0x48, 0x33, 0x3d, 0x9c, 0xab, 0x1a, 0x3f, 0x84, 0xa3, 0x1d, 0xbd,
 0x46, 0xe6, 0xe7, 0xbe, 0xad, 0x39, 0xad, 0x3d, 0x26, 0xb0, 0x3b, 0x3e,
 0xd7, 0xd8, 0x31, 0x40, 0x97, 0xcb, 0xe7, 0x3f, 0xc2, 0x0e, 0x03, 0xbe,
 0x80, 0xc7, 0xac, 0x3c, 0x66, 0xcd, 0x80, 0x3e, 0x47, 0x26, 0x9e, 0xbe,
 0x28, 0x79, 0x9c, 0x3d, 0x87, 0x84, 0x8e, 0x3f, 0x79, 0xd0, 0x97, 0x3f,
 0x3e, 0x4f, 0x33, 0xbe, 0x74, 0x5f, 0x1a, 0x3e, 0x68, 0x71, 0x8f, 0x3e,
 0xad, 0x26, 0xb8, 0xbe, 0x2b, 0x8e, 0x58, 0xbe, 0xa5, 0xf2, 0x41, 0xbe,
 0xe0, 0xb4, 0x46, 0xbd, 0x04, 0xa4, 0x31, 0x40, 0x79, 0xc4, 0xaf, 0x3f,
 0x58, 0xb0, 0x0b, 0xbe, 0xf2, 0x36, 0x12, 0x3e, 0x7e, 0x70, 0x71, 0x3e,
 0xcf, 0xe3, 0x79, 0xbe, 0x8c, 0xb9, 0x05, 0xbd, 0x5d, 0x82, 0xbb, 0x3f,
 0xce, 0xb3, 0xb9, 0x3f, 0xc0, 0x98, 0x8f, 0xbb, 0x9c, 0x8c, 0x48, 0xbd,
 0x6b, 0x56, 0xdb, 0x3e, 0xb0, 0x87, 0xb3, 0xbe, 0x92, 0xe5, 0x2a, 0x3d,
 0xf8, 0xc9, 0xc0, 0xbe, 0x39, 0x77, 0x09, 0xbe, 0xcf, 0x2b, 0x3e, 0x40,
 0x64, 0x5c, 0x93, 0x3f, 0x8c, 0xd7, 0x24, 0x3e, 0x2c, 0xfe, 0x24, 0xbd,
 0xae, 0x12, 0x0d, 0x3d, 0xab, 0xa5, 0xfc, 0xbe, 0x99, 0xd7, 0xc3, 0xbd,
 0xc0, 0xe2, 0x8a, 0x3f, 0x73, 0x45, 0xbb, 0x3f, 0x20, 0x45, 0x71, 0x3d,
 0x70, 0x52, 0x28, 0x3e, 0x77, 0xd2, 0x98, 0xbc, 0x84, 0x18, 0x6c, 0xbf,
 0xec, 0xb4, 0x55, 0x3f, 0xb2, 0xf4, 0x5d, 0xbe, 0x48, 0x8a, 0x5d, 0xbd,
 0xca, 0x37, 0x36, 0x40, 0x24, 0x24, 0xa6, 0x3f, 0x81, 0xdd, 0xe5, 0xbd,
 0x34, 0x21, 0xfd, 0x3d, 0x4d, 0xb0, 0x8e, 0x3d, 0xfa, 0xc7, 0x33, 0xbf,
 0xd7, 0xf9, 0x28, 0xbd, 0xb9, 0x1a, 0x75, 0x3f, 0xa0, 0xca, 0xdf, 0x3f,
 0x48, 0xff, 0xc0, 0x3d, 0x94, 0xe5, 0xb9, 0x3d, 0x4f, 0xf6, 0x07, 0x3b,
 0x8e, 0x30, 0x80, 0xbf, 0xaf, 0xb2, 0x00, 0x40, 0x8f, 0x6e, 0x02, 0xbf,
 0x40, 0xba, 0x04, 0x3e, 0x32, 0x17, 0x54, 0x40, 0x6d, 0x70, 0xb5, 0x3f,
 0x24, 0x18, 0x1b, 0x3e, 0x1b, 0x70, 0x00, 0xbe, 0x11, 0xa4, 0x78, 0x3d,
 0x37, 0x63, 0xc7, 0xbe, 0xac, 0x94, 0x0f, 0xbe, 0x3d, 0x73, 0x99, 0x3f,
 0xbd, 0xce, 0xd3, 0x3f, 0x58, 0xd0, 0xb0, 0xbc, 0x9a, 0x39, 0x2d, 0xbe,
 0xf8, 0x19, 0x06, 0x3e, 0xd1, 0xed, 0x85, 0xbf, 0x2c, 0xcd, 0xe4, 0xbe,
 0x88, 0x15, 0xef, 0xbe, 0x07, 0x82, 0x12, 0x3e, 0xff, 0x19, 0x7f, 0x40,
 0x6c, 0xf5, 0xc1, 0x3f, 0xb5, 0x4c, 0x3c, 0x3e, 0x9e, 0x21, 0xea, 0xbc,
 0x9f, 0x0b, 0xbd, 0x3e, 0x7e, 0xde, 0x57, 0xbf, 0x94, 0xd5, 0x27, 0xbd,
 0xf6, 0x57, 0x0f, 0xbf, 0x70, 0xbf, 0xb0, 0x3f, 0x14, 0x96, 0x92, 0x3d,
 0x21, 0xd3, 0x20, 0x3e, 0x24, 0x35, 0x9e, 0x3f, 0xee, 0x45, 0x96, 0xbe,
 0xfc, 0xf8, 0x03, 0xbf, 0x97, 0x7f, 0x9a, 0xbe, 0x59, 0x47, 0x2c, 0x3e,
 0xc9, 0x9a, 0x1e, 0x40, 0xc1, 0x37, 0xc7, 0x3f, 0xb7, 0x39, 0x43, 0x3e,
 0x10, 0x4f, 0x8a, 0x3d, 0x89, 0x7b, 0xee, 0x3e, 0x81, 0x95, 0x53, 0xbf,
 0x58, 0x98, 0xa6, 0x3d, 0x1e, 0x90, 0x8a, 0xbe, 0xfd, 0x19, 0xbc, 0x3f,
 0xef, 0x34, 0xa3, 0xbd, 0x30, 0x04, 0x3a, 0xbe, 0x39, 0xc9, 0x3f, 0x3f,
 0xf9, 0x98, 0xf1, 0x3d, 0x59, 0x2d, 0xcd, 0xbd, 0x7d, 0xa0, 0xae, 0xbe,
 0xe1, 0x03, 0x49, 0x3d, 0xec, 0xd9, 0x14, 0x40, 0x54, 0x5e, 0xbd, 0x3f,
 0x7d, 0xbe, 0x20, 0x3e, 0x14, 0x3c, 0x4b, 0xbd, 0xe5, 0xdf, 0x87, 0x3e,
 0xa9, 0xdd, 0x21, 0xbf, 0x00, 0xa7, 0xb5, 0x3c, 0xa6, 0x62, 0xea, 0x3e,
 0x8d, 0xae, 0xad, 0x3f, 0x05, 0x1b, 0x05, 0xbe, 0x71, 0x99, 0xbe, 0x3d,
 0x90, 0x74, 0xfc, 0x3e, 0x62, 0x64, 0xb3, 0x3d, 0xc2, 0x27, 0xf9, 0xbd,
 0x72, 0x2f, 0xc3, 0xbe, 0x04, 0x8b, 0xbe, 0xbc, 0x9f, 0x2c, 0x1d, 0x40,
 0x5e, 0x2c, 0xdf, 0x3f, 0x46, 0x1c, 0xca, 0x3d, 0x7d, 0x48, 0x05, 0xbe,
 0xe6, 0x0d, 0x18, 0x3f, 0xf2, 0x4c, 0xe3, 0xbe, 0x68, 0x20, 0xb7, 0x3d,
 0xc3, 0x64, 0x25, 0x3f, 0x6b, 0x6e, 0xc2, 0x3f, 0xe5, 0x3e, 0xe0, 0x3d,
 0xe2, 0x8b, 0x24, 0x3e, 0x35, 0xd7, 0xab, 0x3e, 0x76, 0xc3, 0x8b, 0x3d,
 0x2f, 0xe1, 0x03, 0xbf, 0x22, 0xaa, 0xd6, 0xbe, 0x80, 0xc5, 0xb6, 0xbd,
 0xb3, 0x0c, 0x0e, 0x40, 0x0e, 0x18, 0xda, 0x3f, 0x8b, 0x38, 0x1c, 0x3d,
 0x49, 0x41, 0x05, 0xbd, 0xeb, 0x27, 0xf4, 0x3e, 0xa0, 0xde, 0x37, 0xbe,
 0x45, 0x05, 0xfb, 0xbd, 0x6e, 0xcb, 0xa0, 0x3f, 0xa2, 0x28, 0xa1, 0x3f,
 0xf6, 0x73, 0x3b, 0x3e, 0x30, 0x46, 0x2c, 0xbd, 0x7a, 0x32, 0xc1, 0x3e,
 0xed, 0x0f, 0x85, 0xbe, 0x67, 0xcb, 0x8a, 0xbe, 0x04, 0x93, 0x0d, 0xbf,
 0x77, 0x72, 0xdc, 0xbd, 0xc6, 0xc6, 0x01, 0x40, 0x72, 0xb6, 0xcd, 0x3f,
 0xb4, 0x09, 0xe0, 0xbb, 0x27, 0x61, 0x1d, 0x3e, 0x7c, 0xee, 0x4b, 0x3f,
 0x27, 0xe3, 0xdd, 0xbe, 0x8c, 0x3b, 0x37, 0x3d, 0xc8, 0x36, 0xd6, 0x3f,
 0x43, 0xa5, 0xb9, 0x3f, 0x53, 0xd2, 0x74, 0xbc, 0x4a, 0x5b, 0xd6, 0xbd,
 0xe4, 0x10, 0xb2, 0x3d, 0xbf, 0x6b, 0xee, 0xbe, 0xac, 0x7d, 0xf8, 0x3d,
 0x9a, 0xf4, 0x30, 0xbf, 0xdc, 0x4d, 0x02, 0x3e, 0x0b, 0xed, 0xe0, 0x3f,
 0x3f, 0xe6, 0xb4, 0x3f, 0xf9, 0x94, 0x11, 0x3e, 0x14, 0x58, 0xb5, 0xbd,
 0xb1, 0x34, 0xc2, 0x3e, 0xd5, 0x63, 0xd4, 0xbe, 0xb0, 0xc9, 0x38, 0xbd,
 0xc5, 0x9f, 0x86, 0x3f, 0xad, 0x31, 0xcf, 0x3f, 0xce, 0xa3, 0xba, 0x3d,
 0xa0, 0xeb, 0xa3, 0x3d, 0x24, 0xb3, 0x8f, 0xbd, 0xee, 0x8d, 0x23, 0xbf,
 0x94, 0x26, 0x61, 0x3f, 0xfd, 0x2a, 0x0b, 0xbf, 0x45, 0x60, 0x0f, 0x3d,
 0x93, 0xe7, 0xcb, 0x3f, 0xad, 0xc3, 0xe7, 0x3f, 0x4b, 0x01, 0x67, 0x3c,
 0x2f, 0x8d, 0x8e, 0x3d, 0xb3, 0xe0, 0xa1, 0x3e, 0xd0, 0x95, 0xaa, 0xbe,
 0x81, 0x7e, 0xe1, 0xbd, 0x3d, 0x49, 0x85, 0x3f, 0x14, 0xe9, 0xbc, 0x3f,
 0xf2, 0x6b, 0xcd, 0x3c, 0xe9, 0xd2, 0x0f, 0xbe, 0xd0, 0xf8, 0x01, 0xbf,
 0x59, 0x29, 0x48, 0xbf, 0x6d, 0xe8, 0xdd, 0x3f, 0xf5, 0x68, 0x12, 0xbf,
 0x6c, 0xa5, 0xe5, 0x3d, 0x77, 0x63, 0x18, 0x40, 0x60, 0x84, 0xfc, 0x3f,
 0x37, 0x58, 0xb2, 0xbd, 0xf6, 0x81, 0xe1, 0xbd, 0xb5, 0x4b, 0x0a, 0xbe,
 0x8f, 0x26, 0xd5, 0xbe, 0x28, 0xb6, 0x4a, 0x3d, 0x42, 0x0e, 0xaf, 0x3f,
 0x5d, 0x45, 0xca, 0x3f, 0x61, 0x6e, 0xba, 0x3d, 0x96, 0xeb, 0x0e, 0xbe,
 0xb5, 0xd7, 0x4c, 0x3c, 0x56, 0xf7, 0x1c, 0xbf, 0x83, 0x2f, 0xd6, 0xbe,
 0xf7, 0x51, 0x0e, 0x3e, 0xe4, 0x7f, 0x35, 0xbe, 0x76, 0x8c, 0xdd, 0xbf,
 0x1b, 0x85, 0x30, 0xbf, 0xa4, 0x72, 0x26, 0x3d, 0x76, 0xbe, 0xbd, 0xbb,
 0x58, 0x37, 0x07, 0x3f, 0x12, 0x3d, 0xe1, 0x3e, 0xe0, 0x91, 0x1a, 0xbc,
 0x7a, 0x73, 0x69, 0x3f, 0x64, 0xf6, 0x81, 0x3e, 0x1a, 0x9b, 0x43, 0xbe,
 0x99, 0x55, 0xde, 0xbd, 0x35, 0xf5, 0x62, 0xbf, 0xb1, 0x2f, 0x91, 0xbd,
 0x22, 0xf3, 0xd8, 0xbe, 0xc2, 0x47, 0xec, 0x3c, 0xf1, 0xc8, 0x94, 0xbd,
 0x52, 0xdd, 0x5a, 0xbf, 0x63, 0x2d, 0x85, 0xbf, 0xd4, 0x4c, 0x33, 0xbe,
 0x4b, 0xa6, 0x49, 0xbe, 0xba, 0x73, 0x44, 0x3f, 0xc9, 0x93, 0xea, 0x3e,
 0xa6, 0x08, 0xdf, 0x3d, 0x70, 0x53, 0x83, 0x3f, 0x63, 0x49, 0x0c, 0x3f,
 0x38, 0x2c, 0x10, 0x3e, 0x7d, 0xbe, 0xd1, 0xbd, 0x57, 0x38, 0x11, 0xbf,
 0xa4, 0xc7, 0x2f, 0xbf, 0x3a, 0x21, 0x14, 0xbf, 0x83, 0x68, 0xfa, 0xbd,
 0xef, 0x3f, 0xe8, 0xbd, 0x33, 0xcd, 0x15, 0xbf, 0x3f, 0xf3, 0x34, 0xbf,
 0x96, 0x3e, 0x3f, 0xbd, 0x81, 0xc6, 0xdd, 0x3d, 0xa6, 0x6a, 0x2b, 0x3f,
 0x08, 0x76, 0xeb, 0x3e, 0xcb, 0x07, 0xec, 0xbd, 0x59, 0x1a, 0x4a, 0x3f,
 0xe6, 0x33, 0x1a, 0x3f, 0xa6, 0xdb, 0x16, 0x3e, 0x65, 0x7f, 0xa7, 0x3d,
 0x85, 0x3e, 0x1a, 0xbf, 0x52, 0xf4, 0x5f, 0xbf, 0x2f, 0x9d, 0xa9, 0xbe,
 0xb4, 0x04, 0x9f, 0xbd, 0x3f, 0xf3, 0x3c, 0x3e, 0xa0, 0x2b, 0x8f, 0xbd,
 0xb7, 0x64, 0x5e, 0xbf, 0x91, 0x4f, 0x44, 0xbe, 0xd2, 0x86, 0x2f, 0x3e,
 0x79, 0xd8, 0x17, 0x3f, 0x61, 0xd5, 0xb7, 0x3e, 0x61, 0x15, 0x04, 0x3d,
 0x49, 0x07, 0xa7, 0x3f, 0xd6, 0x3a, 0x1a, 0x3f, 0x03, 0x36, 0x49, 0x3d,
 0xb5, 0x83, 0xca, 0xbd, 0x86, 0x3f, 0x15, 0xbf, 0x7a, 0x1c, 0x64, 0xbf,
 0xab, 0xdd, 0x73, 0x3d, 0x86, 0x2f, 0xb9, 0xbd, 0xfa, 0x7e, 0x03, 0x3e,
 0x5a, 0x1d, 0x79, 0xbe, 0x35, 0xd7, 0x3b, 0xbf, 0xe0, 0x65, 0x1c, 0x3c,
 0x96, 0x92, 0xbe, 0x3d, 0xe5, 0x96, 0x2d, 0x3f, 0xdb, 0x74, 0xc3, 0x3e,
 0xed, 0xd6, 0xef, 0xbc, 0x28, 0xbf, 0x95, 0x3f, 0xe7, 0x06, 0x2d, 0x3f,
 0x56, 0xbc, 0xa2, 0x3c, 0xa8, 0xbd, 0xf4, 0x3c, 0xb4, 0xda, 0xee, 0xbd,
 0x0b, 0xca, 0x85, 0xbf, 0xaf, 0x62, 0x2d, 0xbe, 0x44, 0x71, 0x4f, 0xbe,
 0x14, 0xc7, 0x98, 0x3d, 0x80, 0x45, 0x61, 0xbf, 0xe6, 0x8f, 0x12, 0xbf,
 0xec, 0x80, 0xc4, 0xbd, 0xcd, 0x74, 0x6b, 0x3b, 0xa3, 0x23, 0xc7, 0x3e,
 0x3d, 0xf7, 0xb3, 0x3e, 0x20, 0x30, 0x3f, 0xbe, 0xc8, 0xfb, 0x9f, 0x3f,
 0x41, 0x5a, 0x11, 0x3f, 0x0c, 0xc1, 0xa0, 0x3d, 0x95, 0xa6, 0xe5, 0x3c,
 0x98, 0x51, 0x02, 0xbf, 0x73, 0xb2, 0x86, 0xbf, 0xf2, 0xda, 0x1c, 0xbf,
 0x1e, 0x6d, 0x7f, 0x3d, 0x30, 0x21, 0x04, 0xbe, 0x2b, 0xc8, 0x05, 0xbf,
 0x4b, 0x72, 0x49, 0xbf, 0xaf, 0x4c, 0x9f, 0x3c, 0x9a, 0xfc, 0x8a, 0x3d,
 0xc8, 0x18, 0x23, 0x3f, 0x0d, 0x6b, 0x5f, 0x3f, 0x44, 0xd0, 0x09, 0x3e,
 0x30, 0x57, 0x91, 0x3f, 0x33, 0xf8, 0x68, 0x3f, 0x82, 0xce, 0x09, 0x3e,
 0xcd, 0x62, 0x2b, 0xbe, 0x32, 0x93, 0xdf, 0xbe, 0xe4, 0xc9, 0xaa, 0xbf,
 0xa5, 0x9d, 0x85, 0xbf, 0x41, 0x42, 0x80, 0xbe, 0x74, 0x52, 0x37, 0xbe,
 0xed, 0x58, 0x65, 0xbe, 0xb0, 0xd5, 0x2e, 0xbf, 0xe5, 0x37, 0xf8, 0x3c,
 0xf0, 0x60, 0x1a, 0x3e, 0x4a, 0x88, 0x23, 0x3f, 0x60, 0x43, 0x83, 0x3f,
 0x49, 0xf4, 0xfe, 0x3d, 0x97, 0xe8, 0x8d, 0x3f, 0xab, 0x13, 0x89, 0x3f,
 0x9c, 0x4b, 0x27, 0xbe, 0xf1, 0x45, 0xd4, 0x3d, 0xe7, 0xaa, 0xdd, 0xbe,
 0x15, 0x8d, 0xa5, 0xbf, 0xc2, 0x4e, 0x69, 0xbf, 0xab, 0xa5, 0xf5, 0xbc,
 0x3c, 0x0f, 0xe7, 0x3d, 0x4d, 0x4e, 0xdc, 0x3e, 0xae, 0xf7, 0xdd, 0xbe,
 0xe1, 0x9f, 0x2a, 0x3e, 0xca, 0xae, 0x2f, 0xbe, 0xbb, 0x19, 0x3a, 0x3f,
 0x2c, 0xd8, 0x85, 0x3f, 0x58, 0xc3, 0x36, 0x3e, 0xae, 0x9f, 0xa3, 0x3f,
 0x94, 0xc1, 0x37, 0x3f, 0x8e, 0x40, 0xdb, 0x3c, 0x25, 0x4d, 0x00, 0xbc,
 0x46, 0x02, 0x6c, 0xbe, 0x6a, 0x00, 0xb8, 0xbf, 0x56, 0x67, 0x7d, 0x3e,
 0x88, 0x51, 0xfc, 0x3c, 0xc3, 0xcc, 0x74, 0x3c, 0x94, 0xa0, 0x05, 0xc0,
 0x1c, 0x95, 0x51, 0xbf, 0x1b, 0x85, 0xe7, 0xbb, 0x30, 0xf0, 0x1e, 0xbe,
 0xa4, 0x54, 0x43, 0x3f, 0x7d, 0x5c, 0xa0, 0x3e, 0xe0, 0xb7, 0x54, 0x3c,
 0x54, 0xab, 0xcd, 0x3f, 0x1c, 0x80, 0x17, 0x3f, 0x69, 0x15, 0x3c, 0x3e,
 0x94, 0xd2, 0x38, 0x3e, 0xc1, 0x23, 0x98, 0xbf, 0xa5, 0x52, 0x32, 0x3e,
 0xa9, 0xf1, 0x86, 0xbe, 0xe0, 0x9e, 0xcf, 0x3d, 0x86, 0x54, 0xa1, 0xbd,
 0xa7, 0x38, 0xac, 0xbf, 0x8f, 0xe6, 0x7d, 0xbf, 0x23, 0xb9, 0x0f, 0xbd,
 0x67, 0x55, 0xf9, 0xbd, 0xf1, 0xc7, 0x8c, 0x3f, 0x76, 0x08, 0xc2, 0x3e,
 0xc1, 0xf6, 0xc9, 0xbd, 0x8f, 0x7a, 0xb9, 0x3f, 0x9f, 0x8a, 0x10, 0x3f,
 0x32, 0xc5, 0xae, 0x3d, 0x9a, 0xff, 0x13, 0x3b, 0x71, 0x33, 0x9f, 0xbf,
 0xd2, 0x4b, 0xe2, 0x3b, 0xb0, 0x0b, 0x3d, 0xbf, 0x10, 0x4e, 0xab, 0x3d,
 0xf1, 0x4d, 0x2b, 0xbe, 0x4d, 0xc0, 0x28, 0xbf, 0x90, 0x5b, 0x1a, 0xbf,
 0xb4, 0xbd, 0xe5, 0x3c, 0x79, 0x05, 0x42, 0xbd, 0xed, 0xa4, 0xa3, 0x3f,
 0xc0, 0x2c, 0x6d, 0x3d, 0x50, 0xd3, 0x26, 0x3e, 0x3d, 0x84, 0xc4, 0x3f,
 0xd2, 0x03, 0x0f, 0x3f, 0x8a, 0xaf, 0x0b, 0x3d, 0x5b, 0x3f, 0xc1, 0x3d,
 0x7f, 0x91, 0x46, 0xbf, 0x40, 0x3b, 0x15, 0x3e, 0x0f, 0xc8, 0x18, 0xbf,
 0x0e, 0x7a, 0xe3, 0xbd, 0x1d, 0xa2, 0x8a, 0xbd, 0xd4, 0x91, 0xd7, 0xbe,
 0x1a, 0xfc, 0x2c, 0xbf, 0x87, 0x67, 0x44, 0xbe, 0xd9, 0x1f, 0xea, 0x3b,
 0xad, 0x9f, 0xb8, 0x3e, 0xde, 0x83, 0xc8, 0x3e, 0xfc, 0xe8, 0xc4, 0xbd,
 0xcd, 0xbd, 0xd9, 0x3f, 0x0f, 0xd0, 0xb6, 0x3e, 0x73, 0x75, 0xda, 0xbd,
 0x0a, 0x6c, 0xff, 0x3d, 0xfd, 0xc1, 0x36, 0xbf, 0x24, 0xa0, 0x39, 0x3e,
 0xf8, 0x72, 0x9e, 0x3d, 0xd4, 0x07, 0x30, 0x3e, 0xdd, 0x25, 0xad, 0xbb,
 0xb3, 0x97, 0x06, 0xbf, 0xf8, 0xfc, 0xff, 0xbe, 0xc7, 0xdc, 0x22, 0xbc,
 0x30, 0x9b, 0x78, 0x3d, 0x78, 0xb9, 0x87, 0x3f, 0xe3, 0x30, 0xb6, 0x3e,
 0x4e, 0xd5, 0x44, 0x3e, 0x27, 0x07, 0xe6, 0x3f, 0x9d, 0x3f, 0x25, 0x3f,
 0x8b, 0xf9, 0x08, 0xbe, 0x29, 0x33, 0xcc, 0xbd, 0x2c, 0xf2, 0xb8, 0xbe,
 0x65, 0x9a, 0xb1, 0xbd, 0x0f, 0x60, 0x0a, 0xbe, 0xb2, 0xab, 0xc3, 0xbc,
 0xa5, 0xed, 0x46, 0xbc, 0x0a, 0x9e, 0xc7, 0xbe, 0x36, 0x4e, 0x31, 0xbf,
 0x7c, 0x94, 0x86, 0xbc, 0x5c, 0x51, 0x3b, 0xbe, 0x95, 0x11, 0x21, 0x3f,
 0xda, 0xe2, 0xcd, 0x3e, 0xac, 0x80, 0x2b, 0x3e, 0x8f, 0xe4, 0xbd, 0x3f,
 0x2a, 0x04, 0x15, 0x3f, 0xbd, 0x27, 0xa8, 0x3d, 0x5d, 0x85, 0xfb, 0x3d,
 0x9e, 0xf5, 0x28, 0xbe, 0xfb, 0x7b, 0xc5, 0x3d, 0xb9, 0x2b, 0xaf, 0xbe,
 0x09, 0x52, 0x6f, 0x3c, 0x35, 0xb9, 0x5d, 0xbc, 0xfd, 0x24, 0xc1, 0xbe,
 0x5e, 0xc6, 0x1c, 0xbf, 0xf4, 0x4b, 0x18, 0x3e, 0x9d, 0x95, 0xbd, 0xbd,
 0xb4, 0xcd, 0x33, 0x3f, 0x90, 0xa9, 0x0d, 0x3f, 0x8c, 0x9a, 0x07, 0x3e,
 0xcf, 0x58, 0x8d, 0x3f, 0x1a, 0x4a, 0x55, 0x3f, 0x27, 0x86, 0x15, 0x3e,
 0xb2, 0x5b, 0x2e, 0xbc, 0xa4, 0x03, 0xf3, 0xbe, 0xdd, 0x65, 0x40, 0xbe,
 0x40, 0x4f, 0xe3, 0xbe, 0x54, 0xa2, 0x26, 0xbe, 0x76, 0x42, 0x57, 0xbd,
 0x25, 0xab, 0x33, 0x3e, 0x93, 0x5e, 0x35, 0xbf, 0x95, 0x65, 0xc7, 0x3d,
 0x83, 0x8a, 0x03, 0x3e, 0x7f, 0xb2, 0x8a, 0x3f, 0x87, 0x23, 0xf9, 0x3e,
 0x54, 0xe0, 0xb9, 0x3d, 0x4c, 0x69, 0x57, 0x3f, 0x53, 0x38, 0x4d, 0x3f,
 0x6d, 0xf2, 0xaf, 0xbd, 0x38, 0x60, 0x33, 0xbd, 0x8b, 0xf3, 0x52, 0x3e,
 0x26, 0xdb, 0xb5, 0x3e, 0x7b, 0x9e, 0xa3, 0xbe, 0x98, 0x12, 0x22, 0xbe,
 0x41, 0x81, 0x33, 0xbe, 0x9c, 0x53, 0xcc, 0x3e, 0xb7, 0xd2, 0x1d, 0xbf,
 0xde, 0xa9, 0xfe, 0x3d, 0xf3, 0x0f, 0x01, 0xbe, 0xb6, 0x11, 0x69, 0x3f,
 0xff, 0x70, 0xeb, 0x3e, 0x76, 0x65, 0x25, 0x3e, 0x7a, 0x9c, 0x9a, 0x3f,
 0xe0, 0x06, 0x06, 0x3f, 0x7f, 0xe4, 0x9c, 0x3d, 0x84, 0x46, 0x3d, 0xbd,
 0x5b, 0x71, 0x2f, 0x3f, 0x8c, 0xb5, 0x05, 0x3f, 0xd8, 0xa8, 0x31, 0xbf,
 0xa7, 0x47, 0x92, 0xbd, 0x8e, 0x8e, 0xd0, 0xbd, 0xec, 0x7a, 0x91, 0x40,
 0x26, 0x0c, 0x52, 0x3f, 0x00, 0xd9, 0x85, 0xba, 0x4f, 0xe4, 0x3d, 0xbe,
 0xc9, 0xfa, 0x31, 0x3f, 0x93, 0x40, 0x39, 0x3e, 0x04, 0x7c, 0x62, 0x3d,
 0x9a, 0x28, 0x7f, 0xbf, 0x8f, 0xb3, 0x22, 0x3f, 0x44, 0x33, 0x65, 0x3d,
 0x3e, 0xb7, 0xf6, 0x3d, 0x8d, 0x0c, 0x8d, 0x3f, 0x77, 0x9a, 0x68, 0xbf,
 0xf1, 0x74, 0x07, 0xbf, 0xd7, 0xe4, 0xef, 0xbd, 0x41, 0xd4, 0xf5, 0xbd,
 0xbd, 0x71, 0x5d, 0x40, 0x6a, 0x36, 0x70, 0x3f, 0x3a, 0x32, 0x30, 0x3e,
 0x44, 0x93, 0x11, 0x3e, 0xca, 0x17, 0x34, 0x3f, 0x3c, 0x0c, 0xb7, 0x3e,
 0xa0, 0xfa, 0x7b, 0x3d, 0xf1, 0x49, 0xf6, 0xbe, 0x4f, 0xf4, 0x07, 0x3f,
 0x76, 0xfb, 0x1b, 0x3e, 0x78, 0xa1, 0x42, 0x3e, 0xb6, 0x01, 0x7b, 0x3f,
 0x4a, 0x4c, 0xd5, 0xbe, 0x6d, 0xd7, 0xcc, 0xbd, 0x82, 0x9c, 0x74, 0xba,
 0x06, 0xa5, 0x1d, 0x3e, 0xac, 0xf6, 0x6d, 0x40, 0xa0, 0x90, 0x55, 0x3f,
 0x48, 0xd7, 0xf2, 0xbc, 0xc8, 0x48, 0xc2, 0x3d, 0x87, 0x17, 0x3e, 0x3f,
 0x99, 0xb8, 0x4e, 0x3e, 0x18, 0x57, 0xc3, 0xbc, 0xa6, 0xa9, 0xdf, 0xbe,
 0x49, 0xc7, 0x14, 0x3f, 0xfa, 0x30, 0x2e, 0x3e, 0x14, 0xb0, 0x74, 0xbd,
 0x18, 0xc8, 0x89, 0x3f, 0xd6, 0xf7, 0x78, 0xbe, 0xd7, 0xab, 0xa9, 0x3d,
 0x28, 0x7c, 0x56, 0x3e, 0x1c, 0x57, 0x47, 0xbd, 0xf3, 0xe6, 0x88, 0x40,
 0x85, 0xb3, 0x88, 0x3f, 0xa4, 0xbf, 0x19, 0x3e, 0x00, 0x54, 0xa6, 0xbb,
 0xcf, 0xa4, 0x0f, 0x3f, 0xd4, 0x9b, 0x79, 0x3e, 0x74, 0x1e, 0x41, 0xbe,
 0x85, 0x6d, 0x50, 0x3e, 0xac, 0x3b, 0x27, 0x3f, 0xba, 0x1f, 0x34, 0x3e,
 0x8f, 0xef, 0x09, 0x3e, 0x23, 0x52, 0x99, 0x3f, 0xeb, 0x16, 0xe3, 0xbd,
 0x16, 0xda, 0x85, 0x3e, 0x05, 0x29, 0x91, 0x3c, 0x80, 0xcc, 0xe3, 0x3a,
 0xa2, 0xa5, 0x98, 0x40, 0x5b, 0x3f, 0x7b, 0x3f, 0xa0, 0x99, 0x44, 0x3c,
 0x14, 0xd1, 0x04, 0x3e, 0x28, 0xa5, 0x0f, 0x3f, 0xd0, 0xb1, 0x75, 0x3e,
 0x80, 0xdc, 0x71, 0xbb, 0x44, 0xb2, 0x94, 0x3e, 0x7e, 0xc2, 0x32, 0x3f,
 0x00, 0x61, 0x93, 0x3d, 0x98, 0x02, 0x22, 0x3e, 0x3f, 0xd4, 0x89, 0x3f,
 0x2b, 0x7e, 0x0f, 0xbf, 0xb3, 0x3f, 0x0e, 0x3f, 0xff, 0xf8, 0x51, 0xbd,
 0x18, 0x11, 0xf0, 0xbc, 0x7d, 0xce, 0x86, 0x40, 0xc1, 0xc3, 0x2e, 0x3f,
 0x88, 0xe7, 0x11, 0xbd, 0x88, 0xef, 0xfb, 0x3d, 0x93, 0xdd, 0x42, 0x3f,
 0x6e, 0x83, 0x1c, 0x3d, 0x9c, 0x72, 0x40, 0x3e, 0x2e, 0x6b, 0x40, 0x3f,
 0x24, 0x11, 0x54, 0x3f, 0xe8, 0xfa, 0x08, 0x3d, 0x87, 0x42, 0xba, 0xbd,
 0xcb, 0xb5, 0x52, 0x3f, 0xf1, 0xbd, 0xe1, 0xbe, 0x62, 0x8b, 0x14, 0x3f,
 0x47, 0x51, 0xbe, 0x3d, 0xb7, 0x8b, 0x18, 0xbe, 0x17, 0x1d, 0x6b, 0x40,
 0x01, 0xee, 0x4f, 0x3f, 0x8a, 0x32, 0x09, 0xbe, 0x54, 0x5b, 0x0e, 0xbd,
 0xf8, 0xf2, 0x3c, 0x3f, 0xfc, 0x74, 0x1b, 0xbe, 0x8c, 0x16, 0x08, 0x3d,
 0xb3, 0xca, 0x6e, 0x3f, 0x58, 0x50, 0xe9, 0x3e, 0xfc, 0xdd, 0x3d, 0xbd,
 0xbe, 0xf3, 0x44, 0x3e, 0xfa, 0x61, 0x2d, 0x3f, 0xcb, 0x1b, 0x2f, 0xbf,
 0xc3, 0x84, 0x48, 0x3f, 0xc4, 0xfc, 0x05, 0x3e, 0xbf, 0xd7, 0x43, 0xbe,
 0xfd, 0x41, 0x77, 0x40, 0x8c, 0x1e, 0x67, 0x3f, 0x98, 0x41, 0xe5, 0xbd,
 0x64, 0x78, 0x64, 0x3d, 0x68, 0x6e, 0x2f, 0x3f, 0x81, 0x1a, 0x6e, 0xbe,
 0x60, 0x58, 0x43, 0x3e, 0xc2, 0x87, 0x2f, 0x3f, 0x10, 0x24, 0x13, 0x3f,
 0x40, 0xc5, 0x73, 0x3d, 0x08, 0x19, 0xd9, 0xbc, 0x6e, 0xc9, 0x31, 0x3f,
 0x99, 0x63, 0x02, 0xbf, 0xfc, 0x22, 0x93, 0x3f, 0x38, 0xf2, 0x15, 0x3d,
 0x18, 0x6b, 0x46, 0xbd, 0x5f, 0x2f, 0x8c, 0x40, 0x8b, 0x7a, 0x3f, 0x3f,
 0xec, 0xdd, 0x14, 0x3d, 0xe6, 0x8e, 0x32, 0x3e, 0x58, 0x06, 0xce, 0x3e,
 0x5b, 0xd1, 0x34, 0xbe, 0x5c, 0xf5, 0x86, 0xbd, 0xf5, 0xbf, 0x25, 0x3f,
 0x16, 0x94, 0x33, 0x3f, 0x2b, 0x7b, 0x34, 0xbe, 0xfe, 0x11, 0x3d, 0xbe,
 0x93, 0x4f, 0x0b, 0x3f, 0x72, 0x66, 0x22, 0xbf, 0x5a, 0x8f, 0x50, 0x3f,
 0xdb, 0xf3, 0x37, 0x3e, 0x2e, 0x71, 0x45, 0xbe, 0x0d, 0x09, 0x6a, 0xc0,
 0x2e, 0xef, 0x67, 0xbf, 0xb8, 0xe1, 0x84, 0xbd, 0x80, 0x2e, 0x39, 0x3e,
 0x15, 0xed, 0x3c, 0x3f, 0x00, 0xaf, 0x30, 0x3f, 0xe8, 0x00, 0xd4, 0xbc,
 0xe5, 0xb8, 0x30, 0x40, 0xa3, 0x6a, 0x86, 0x3f, 0xea, 0x8d, 0x3f, 0xbd,
 0xf5, 0xc5, 0x9c, 0xbd, 0x14, 0x6d, 0x7d, 0xbf, 0x75, 0x12, 0x3f, 0x3f,
 0x6e, 0x57, 0x0e, 0x3f, 0x35, 0xf0, 0x89, 0x3e, 0x74, 0x44, 0x2e, 0x3d,
 0xf3, 0xf9, 0x1f, 0xc0, 0xa4, 0x3c, 0x63, 0xbf, 0xf4, 0x89, 0x97, 0x3d,
 0x2c, 0x4b, 0xf4, 0x3d, 0x0f, 0x4c, 0xc8, 0x3e, 0x0a, 0x13, 0x17, 0x3f,
 0x00, 0x88, 0xab, 0xba, 0xa4, 0x18, 0xdc, 0x3f, 0x71, 0xe6, 0xba, 0x3f,
 0xfc, 0x2c, 0x1f, 0xbe, 0x9c, 0x80, 0xd1, 0x3d, 0x37, 0x08, 0x71, 0xbf,
 0x23, 0x07, 0x03, 0x3f, 0x2a, 0xb7, 0xc9, 0x3d, 0xb7, 0x57, 0x5a, 0x3e,
 0x28, 0xa4, 0xfa, 0x3d, 0x96, 0x63, 0x97, 0xbf, 0x82, 0x7b, 0x0e, 0xbf,
 0x2b, 0x43, 0x3a, 0xbe, 0x44, 0x2b, 0xa4, 0x3d, 0xaf, 0xd7, 0x0e, 0x3f,
 0x91, 0xb3, 0x16, 0x3f, 0xd4, 0xe7, 0x31, 0x3e, 0xa9, 0x57, 0x7e, 0x3f,
 0x53, 0xeb, 0x93, 0x3f, 0xbb, 0x35, 0x22, 0xbd, 0x8a, 0xb2, 0x3c, 0x3e,
 0x70, 0xd8, 0x3b, 0xbf, 0x42, 0x11, 0x4c, 0x3e, 0xae, 0xa7, 0x8f, 0xbe,
 0xfb, 0x72, 0x58, 0x3e, 0xd8, 0x6f, 0x02, 0xbd, 0xef, 0xc9, 0xa5, 0xbf,
 0xa1, 0xa8, 0x06, 0xbf, 0xbe, 0xda, 0x28, 0x3e, 0x38, 0x2f, 0x36, 0x3e,
 0xf0, 0x7a, 0x86, 0x3e, 0xe8, 0xbc, 0x93, 0x3e, 0x7c, 0x83, 0x29, 0xbe,
 0x8f, 0xec, 0xaf, 0x3f, 0x21, 0x76, 0x5c, 0x3f, 0x29, 0x31, 0x2d, 0x3e,
 0x7f, 0x86, 0x15, 0x3e, 0x13, 0xf6, 0xea, 0xbe, 0xf1, 0x12, 0xbb, 0x3e,
 0x52, 0x76, 0x1c, 0xbd, 0xc1, 0x8e, 0x1c, 0x3e, 0x76, 0xed, 0x2f, 0x3e,
 0x83, 0xc1, 0xa3, 0xbf, 0x49, 0x05, 0x07, 0xbf, 0x70, 0x96, 0x76, 0xbd,
 0xc0, 0x80, 0x5c, 0x3c, 0x25, 0x41, 0x04, 0x3f, 0x2a, 0x3b, 0xb8, 0x3e,
 0xc6, 0x14, 0xe7, 0xbd, 0xc2, 0xe6, 0xe9, 0x3f, 0x42, 0x26, 0x9d, 0x3f,
 0x49, 0xf2, 0x34, 0xbe, 0x1e, 0x37, 0x38, 0x3e, 0x1b, 0x18, 0x29, 0xbe,
 0xaa, 0x05, 0x5d, 0x3f, 0x17, 0xe7, 0xa6, 0xbe, 0x4a, 0x0f, 0x87, 0x3e,
 0x10, 0x07, 0xc7, 0x3d, 0x5c, 0x0d, 0xa2, 0xbf, 0xf1, 0xe4, 0x36, 0xbf,
 0x54, 0x6c, 0x58, 0xbd, 0x44, 0x7c, 0xfb, 0xbd, 0x16, 0x71, 0x0c, 0x3e,
 0xf9, 0x28, 0xd4, 0x3e, 0xbe, 0xac, 0x29, 0x3e, 0x69, 0x59, 0x51, 0x3f,
 0x4d, 0xa7, 0x23, 0x3f, 0x3c, 0x51, 0xb0, 0x3d, 0x7d, 0xe7, 0x31, 0xbe,
 0x90, 0x29, 0xa6, 0x3e, 0x06, 0xc8, 0x5a, 0x3e, 0x6b, 0x92, 0xf4, 0xbe,
 0x48, 0xe8, 0x92, 0x3e, 0xd8, 0xdb, 0x93, 0xbc, 0xad, 0x74, 0x95, 0xbf,
 0x91, 0x88, 0x87, 0xbf, 0x00, 0x3c, 0x37, 0xbb, 0x4c, 0xd5, 0x1f, 0x3e,
 0xba, 0x68, 0x03, 0x3f, 0x9c, 0xe1, 0xbd, 0x3e, 0x3c, 0xf8, 0x84, 0x3d,
 0x35, 0x26, 0xe7, 0x3e, 0x95, 0x6c, 0xa5, 0x3f, 0xf7, 0xe1, 0x31, 0xbe,
 0x47, 0x0b, 0x29, 0xbe, 0xae, 0xd6, 0x53, 0x3f, 0xe7, 0x1a, 0xe1, 0x3e,
 0x4e, 0x8d, 0x8c, 0xbf, 0xf8, 0x1d, 0x7a, 0x3e, 0xd7, 0xab, 0x0d, 0xbe,
 0x48, 0x36, 0x22, 0xbe, 0x17, 0x2e, 0xa5, 0xbf, 0x60, 0xef, 0x21, 0xbe,
 0xb0, 0x76, 0x1d, 0xbd, 0x3b, 0xf9, 0x6e, 0x3f, 0x8d, 0x09, 0xb1, 0x3e,
 0x48, 0x4c, 0x29, 0x3d, 0xb0, 0x45, 0xfb, 0x3e, 0x13, 0x87, 0xc4, 0x3f,
 0x76, 0x18, 0x33, 0x3d, 0xa0, 0xd6, 0xd2, 0x3b, 0xb1, 0xd5, 0xb5, 0x3f,
 0x92, 0x14, 0x40, 0x3e, 0xad, 0x57, 0x92, 0xbf, 0x66, 0x0e, 0x80, 0x3e,
 0x64, 0xcf, 0x94, 0x3d, 0xb9, 0xd2, 0xa2, 0xbe, 0x90, 0x13, 0xbd, 0xbf,
 0x29, 0xb7, 0xdf, 0xbd, 0x02, 0x4a, 0x40, 0x3e, 0xee, 0x75, 0x8e, 0x3f,
 0x3a, 0x39, 0xd6, 0x3e, 0xac, 0x0d, 0x1a, 0xbd, 0xbf, 0x18, 0xb3, 0x3e,
 0xcb, 0x57, 0x96, 0x3f, 0x4f, 0xe0, 0xd1, 0x3d, 0x26, 0x3b, 0x35, 0x3e,
 0x2f, 0x59, 0xfe, 0x3f, 0xf0, 0x75, 0x70, 0xbe, 0x8f, 0x30, 0x2c, 0xbe,
 0xfd, 0x88, 0xd7, 0x3d, 0x10, 0xef, 0x29, 0xbc, 0xa8, 0x1b, 0x07, 0x3e,
 0x58, 0x30, 0x2c, 0x3b, 0xf4, 0xd0, 0x7f, 0xbd, 0xef, 0x7c, 0x14, 0xbe,
 0xd4, 0x58, 0x3f, 0xbe, 0xa4, 0x77, 0x33, 0xbe, 0x08, 0xeb, 0x2b, 0x3e,
 0x1c, 0x45, 0x26, 0xbe, 0xd2, 0x5f, 0x08, 0xbd, 0x99, 0x7a, 0x3f, 0x3c,
 0xe0, 0x09, 0x37, 0x3d, 0xaa, 0xbd, 0x44, 0xbe, 0x4f, 0xb3, 0x90, 0x3d,
 0xac, 0xa3, 0x21, 0x3d, 0x1a, 0x01, 0x04, 0xbe, 0x8e, 0x4a, 0x41, 0xbe,
 0x6f, 0x0c, 0x2e, 0xbe, 0x70, 0xcb, 0x60, 0x3b, 0xb0, 0xdf, 0x3f, 0xbd,
 0x0f, 0xe9, 0xdb, 0xbd, 0x4a, 0xc3, 0x23, 0xbe, 0x16, 0xc2, 0x3f, 0x3e,
 0xb8, 0x2a, 0xed, 0xbc, 0x99, 0x2e, 0xa4, 0x3d, 0xd0, 0x22, 0x04, 0xbd,
 0x61, 0xe0, 0x47, 0x3c, 0xd8, 0xb8, 0xa1, 0x3d, 0x78, 0xe8, 0x6d, 0xbe,
 0x9b, 0x07, 0x39, 0xbe, 0xf0, 0xb3, 0x10, 0xbe, 0xe9, 0x49, 0x99, 0xbd,
 0x48, 0x37, 0x70, 0x3d, 0x4d, 0xd5, 0x9a, 0x3d, 0xa2, 0x94, 0xfa, 0x3d,
 0x60, 0x0f, 0x40, 0x3d, 0x08, 0x41, 0x13, 0x3e, 0xa0, 0x53, 0xb9, 0x3b,
 0xa7, 0x6b, 0xd1, 0xbd, 0x1d, 0x18, 0x3c, 0xbe, 0x78, 0x7e, 0x30, 0x3e,
 0xdc, 0xef, 0xbb, 0xbc, 0x3b, 0x6e, 0x0f, 0xbd, 0xd0, 0x6a, 0x18, 0x3d,
 0x94, 0xfa, 0x65, 0x3d, 0x35, 0xc2, 0x3b, 0xbd, 0x9b, 0x24, 0x16, 0x3e,
 0xe3, 0x23, 0xab, 0x3d, 0x88, 0x38, 0x88, 0xbc, 0x4a, 0x66, 0x64, 0x3d,
 0xeb, 0x30, 0x44, 0x3c, 0x3c, 0x06, 0xf5, 0x3d, 0xd0, 0x20, 0x01, 0x3e,
 0x22, 0xbb, 0x09, 0xbe, 0xa0, 0x97, 0xf1, 0x3b, 0x96, 0x93, 0x44, 0x3e,
 0x1a, 0x17, 0x62, 0xbd, 0x8b, 0x93, 0xf9, 0xbd, 0x59, 0x98, 0xe3, 0x3d,
 0xec, 0x19, 0xd4, 0xbd, 0xb1, 0xf2, 0x2b, 0x3d, 0x72, 0xee, 0x44, 0xbe,
 0x7c, 0x61, 0x35, 0xbe, 0x53, 0x51, 0x6f, 0x3d, 0x30, 0x80, 0x0a, 0xbd,
 0xb1, 0xda, 0x01, 0x3e, 0xef, 0xd3, 0x63, 0xbe, 0x6f, 0x80, 0xc3, 0xbd,
 0x1d, 0x27, 0xb7, 0xbd, 0xbd, 0x7d, 0x04, 0xbe, 0x30, 0x1f, 0x3d, 0xbc,
 0x18, 0x63, 0xc9, 0x3d, 0x17, 0x71, 0x82, 0x3d, 0xdf, 0xed, 0xea, 0x3c,
 0xb1, 0xd4, 0x95, 0xbd, 0x1c, 0x72, 0xa1, 0x3d, 0x46, 0x79, 0x13, 0x3e,
 0x3e, 0xcb, 0xec, 0xbd, 0xf0, 0xa1, 0x67, 0xbc, 0x4a, 0x93, 0x78, 0x3c,
 0x90, 0x37, 0x85, 0x3c, 0x06, 0x25, 0xe5, 0xbc, 0xe2, 0x22, 0x5f, 0xbe,
 0xf0, 0x68, 0x3f, 0xbe, 0xd0, 0x8e, 0x15, 0x3d, 0x20, 0x0a, 0xc5, 0xbb,
 0x31, 0x2c, 0xc3, 0xbd, 0x28, 0x79, 0x14, 0x3e, 0x25, 0xb7, 0x51, 0x3d,
 0x3a, 0x1e, 0x23, 0x3d, 0x02, 0xe1, 0x24, 0x3e, 0x3c, 0x1e, 0x33, 0x3d,
 0xc3, 0x76, 0x6a, 0x3d, 0x1a, 0x2f, 0x0d, 0xbe, 0x25, 0xf9, 0xe8, 0xbd,
 0xeb, 0xd7, 0x23, 0x3d, 0x6c, 0xcf, 0xb9, 0x3d, 0x03, 0x9a, 0x06, 0xbd,
 0x1a, 0x20, 0x71, 0x3d, 0x2f, 0x2d, 0xea, 0xbd, 0x4e, 0xe9, 0x97, 0xbd,
 0x38, 0xf4, 0xed, 0xbc, 0x12, 0x20, 0xb8, 0xbc, 0x70, 0x3e, 0x17, 0xbc,
 0x71, 0x41, 0xa0, 0xbc, 0xd1, 0xa9, 0x3d, 0xbe, 0xf8, 0x5b, 0x1b, 0xbd,
 0x0c, 0xb1, 0x84, 0x3d, 0xa7, 0x96, 0xc6, 0x3d, 0xf4, 0x27, 0x19, 0x3e,
 0x99, 0xb7, 0xb2, 0xba, 0x35, 0xef, 0x6b, 0xbe, 0xac, 0x77, 0xc8, 0x3d,
 0x89, 0xbc, 0x51, 0xbe, 0xbc, 0x02, 0x36, 0xbe, 0xfa, 0x45, 0x23, 0x3e,
 0xc8, 0xa4, 0x4a, 0xbd, 0x34, 0x32, 0x83, 0x3d, 0xe3, 0x1c, 0x82, 0x3c,
 0x22, 0x0a, 0x38, 0x3e, 0x9d, 0x60, 0xd3, 0xbd, 0x52, 0x06, 0x02, 0x3e,
 0x67, 0x4d, 0xf5, 0xbc, 0x28, 0xbc, 0x12, 0xbd, 0x7e, 0x7c, 0x04, 0x3e,
 0xc9, 0xbc, 0xa8, 0x3d, 0x19, 0x0c, 0xb6, 0xbd, 0xc8, 0x6b, 0x25, 0xbe,
 0x84, 0xb1, 0x3e, 0xbe, 0x3c, 0xb4, 0x2f, 0xbe, 0x87, 0x33, 0xec, 0x3d,
 0xf7, 0x29, 0xde, 0xbd, 0xcb, 0x57, 0xbd, 0xbd, 0xc0, 0x41, 0x6d, 0xbb,
 0x4a, 0x47, 0x15, 0x3e, 0x30, 0xd8, 0xff, 0x3d, 0xb4, 0xe5, 0x90, 0xbd,
 0xa5, 0x1b, 0x82, 0x3d, 0x03, 0x4a, 0x3b, 0xbd, 0x48, 0x1d, 0x1d, 0x3e,
 0x3b, 0x92, 0xaf, 0xbc, 0x46, 0xf9, 0x43, 0xbe, 0x85, 0x85, 0x43, 0x3f,
 0x39, 0x24, 0xbe, 0x3d, 0xac, 0x41, 0x24, 0x3e, 0xc1, 0xcb, 0xee, 0xbf,
 0xca, 0xd2, 0x41, 0xbf, 0xf2, 0x4d, 0x8b, 0xbd, 0x45, 0x5a, 0x0e, 0xbe,
 0x53, 0x03, 0x3a, 0x3f, 0x71, 0xeb, 0xcd, 0x3d, 0x14, 0xc6, 0x03, 0x3d,
 0x64, 0x78, 0x25, 0x40, 0xef, 0xa6, 0x50, 0x3f, 0x4e, 0xae, 0x8a, 0xbd,
 0xe6, 0x4c, 0xdf, 0xbd, 0xa1, 0xc0, 0xa0, 0xbf, 0x4a, 0xb3, 0x81, 0x3f,
 0xfe, 0x41, 0x2f, 0x3f, 0x46, 0xfb, 0xbb, 0x3d, 0x16, 0x72, 0x22, 0x3e,
 0xa1, 0xdd, 0x85, 0xbf, 0xfd, 0x86, 0xc6, 0xbe, 0x8d, 0x91, 0x1e, 0xbe,
 0x28, 0xb4, 0x6b, 0xbd, 0xe4, 0x8a, 0x4a, 0x3f, 0x45, 0xc6, 0x87, 0x3b,
 0xf0, 0x4b, 0x0e, 0x3e, 0x26, 0x48, 0xfa, 0x3f, 0xc3, 0xcf, 0x8c, 0x3f,
 0x06, 0x89, 0xd9, 0xbd, 0x67, 0x6d, 0x0b, 0xbe, 0x6d, 0xfc, 0x96, 0xbf,
 0xbb, 0x35, 0xf1, 0x3e, 0x4a, 0xcf, 0x51, 0x3d, 0xb9, 0x13, 0x47, 0x3e,
 0x30, 0x71, 0xa2, 0x3d, 0xfc, 0xe6, 0xf5, 0xbe, 0x84, 0x5d, 0xd2, 0xbe,
 0xa1, 0x55, 0x98, 0xbd, 0x90, 0xdf, 0xb4, 0x3c, 0xb6, 0xab, 0x64, 0x3f,
 0x2e, 0x8c, 0x83, 0x3e, 0xc0, 0x85, 0xbb, 0x3d, 0x98, 0xcf, 0xb7, 0x3f,
 0x5f, 0xe3, 0x49, 0x3f, 0xd4, 0xde, 0x42, 0xbd, 0xd8, 0x5d, 0x61, 0x3d,
 0xb2, 0xca, 0x89, 0xbf, 0x93, 0x89, 0x8e, 0x3e, 0x60, 0xed, 0x17, 0xbe,
 0x41, 0xb4, 0x82, 0xbd, 0xbc, 0x6f, 0x16, 0x3d, 0x01, 0x85, 0x1b, 0xbf,
 0xba, 0xb2, 0x21, 0xbf, 0x2d, 0xf8, 0x9f, 0xbd, 0xdc, 0xaa, 0xae, 0x3d,
 0x9f, 0x79, 0x32, 0x3f, 0x7f, 0x3e, 0x42, 0x3d, 0x60, 0x66, 0xbf, 0x3d,
 0x45, 0xe0, 0xdf, 0x3f, 0xb6, 0xf6, 0xf7, 0x3e, 0x41, 0x6d, 0xd2, 0xbd,
 0x6f, 0xb4, 0xca, 0xbd, 0x0f, 0x5f, 0x58, 0xbf, 0x7b, 0x31, 0x11, 0x3f,
 0xbc, 0xcd, 0x15, 0x3e, 0x31, 0x35, 0x43, 0xbd, 0x20, 0x27, 0xd1, 0x3d,
 0x04, 0xf4, 0x02, 0xbf, 0x7f, 0xfc, 0x0a, 0xbf, 0x20, 0xd1, 0xc3, 0xbb,
 0x11, 0x77, 0x0c, 0xbe, 0xa5, 0x59, 0x1d, 0x3f, 0xdd, 0x8f, 0x03, 0x3d,
 0xfc, 0xf2, 0x43, 0xbd, 0xf9, 0x3f, 0xcd, 0x3f, 0xc3, 0xe7, 0x26, 0x3f,
 0xca, 0x56, 0xaf, 0xbd, 0x31, 0x94, 0x2a, 0xbe, 0x8b, 0x3b, 0xaa, 0xbe,
 0xe9, 0x35, 0x03, 0x3f, 0xc1, 0xc3, 0xe4, 0xbe, 0x9c, 0xef, 0x63, 0xbd,
 0x70, 0x66, 0xe4, 0xbc, 0x7f, 0x46, 0xa4, 0xbe, 0xe7, 0xb0, 0xa3, 0xbe,
 0xe8, 0x8f, 0x85, 0xbd, 0x74, 0xd2, 0x31, 0x3e, 0x45, 0x6b, 0x53, 0x3e,
 0x8b, 0x87, 0x39, 0x3e, 0x78, 0x57, 0x77, 0x3d, 0x1e, 0xf0, 0x8e, 0x3f,
 0x16, 0x88, 0x9d, 0x3e, 0x0e, 0x9d, 0xf9, 0xbd, 0xf8, 0x64, 0x27, 0x3d,
 0xd3, 0xcd, 0xef, 0x3d, 0x2d, 0x21, 0xab, 0x3d, 0xfb, 0x04, 0x12, 0xbf,
 0x31, 0xf7, 0x88, 0xbd, 0xeb, 0x69, 0xb6, 0xbd, 0xb4, 0x9d, 0x10, 0xbf,
 0xc8, 0xb5, 0x0a, 0xbf, 0x09, 0x1f, 0x16, 0xbe, 0x30, 0x06, 0xff, 0x3d,
 0xc6, 0xd9, 0x0d, 0x3e, 0xa6, 0x08, 0x00, 0x3e, 0x5e, 0xe5, 0x24, 0xbe,
 0x54, 0x5b, 0x70, 0x3f, 0xb5, 0xba, 0x27, 0x3f, 0x46, 0x3a, 0x23, 0x3e,
 0xbb, 0xe1, 0xf4, 0xbd, 0x18, 0x7a, 0x0b, 0x3f, 0xe9, 0xa5, 0x9d, 0x3e,
 0x7a, 0x82, 0x8a, 0xbf, 0xda, 0xef, 0x4a, 0x3d, 0x33, 0xa2, 0x03, 0xbe,
 0x47, 0x03, 0x14, 0x3e, 0x1b, 0x0a, 0x82, 0xbf, 0x42, 0xad, 0x1e, 0x3e,
 0x83, 0x82, 0xab, 0xbd, 0xea, 0x71, 0x70, 0x3f, 0xf4, 0x6e, 0xc8, 0x3e,
 0x51, 0x2a, 0xd0, 0xbd, 0x54, 0x03, 0x3e, 0x3f, 0xa8, 0xc5, 0x40, 0x3f,
 0xba, 0xa0, 0xe0, 0xbd, 0xdc, 0x8c, 0x17, 0x3e, 0x85, 0x8d, 0xb2, 0x3f,
 0xee, 0x70, 0xa0, 0xbe, 0xd1, 0xda, 0x93, 0xbf, 0x36, 0xbc, 0x1b, 0xbe,
 0x94, 0x8c, 0x57, 0x3d, 0x77, 0x56, 0x42, 0x3e, 0x37, 0xdf, 0x92, 0xbf,
 0x48, 0xb8, 0xa2, 0x3d, 0x0a, 0x2e, 0xbe, 0xbd, 0x94, 0xeb, 0x84, 0x3f,
 0xee, 0xaf, 0xce, 0x3e, 0x80, 0x31, 0xca, 0xba, 0xe2, 0x64, 0xfd, 0x3e,
 0x2b, 0x17, 0x55, 0x3f, 0x00, 0x3f, 0x19, 0xbb, 0x14, 0xbd, 0xd1, 0x3d,
 0xb8, 0xda, 0xbd, 0x3f, 0x82, 0x45, 0x42, 0xbe, 0xc8, 0x5c, 0xd0, 0xbe,
 0x0c, 0xe6, 0x95, 0x3b, 0x94, 0x7d, 0x06, 0xbe, 0xf0, 0x1e, 0x7c, 0x40,
 0xe5, 0xb9, 0x0b, 0x40, 0x56, 0x15, 0x0e, 0xbe, 0xc1, 0xf7, 0xbf, 0xbc,
 0x73, 0x30, 0x81, 0x3f, 0x90, 0x31, 0xdd, 0xbf, 0xdc, 0x2d, 0x1a, 0x3d,
 0xd3, 0xb3, 0xf1, 0x3d, 0xe8, 0x4b, 0xc3, 0x3f, 0x06, 0x38, 0x18, 0x3c,
 0xc7, 0x9d, 0x03, 0x3d, 0x31, 0xb3, 0xbe, 0x3f, 0x47, 0x7c, 0x87, 0xbe,
 0x7a, 0x40, 0x09, 0xbf, 0x5c, 0x0a, 0x64, 0xbd, 0x39, 0x2d, 0xb4, 0x3d,
 0xf1, 0x2c, 0x1b, 0x40, 0x70, 0x35, 0xff, 0x3f, 0x71, 0xdc, 0x2e, 0xbe,
 0x26, 0x8d, 0x3e, 0x3e, 0x2c, 0xbf, 0x93, 0x3f, 0x9a, 0xbb, 0xac, 0xbf,
 0xd8, 0xd7, 0x07, 0x3e, 0x03, 0x40, 0xea, 0x3e, 0x2a, 0xc8, 0xaa, 0x3f,
 0xa9, 0x50, 0x26, 0x3e, 0x84, 0x11, 0xcd, 0x3d, 0x69, 0x89, 0x9d, 0x3f,
 0x9c, 0x24, 0xef, 0xbe, 0x01, 0x44, 0xbe, 0xbe, 0x61, 0xe6, 0x1e, 0xbd,
 0x9c, 0x99, 0x29, 0x3e, 0x39, 0x8f, 0x02, 0x40, 0x11, 0x84, 0xd9, 0x3f,
 0x02, 0x25, 0x3b, 0xbe, 0x9e, 0x63, 0x38, 0x3e, 0x62, 0xaf, 0x65, 0x3f,
 0xb9, 0x8f, 0x95, 0xbf, 0x98, 0xba, 0x49, 0xbe, 0x25, 0x0e, 0x0c, 0x3f,
 0x3c, 0xdd, 0xb8, 0x3f, 0xc2, 0x47, 0x0e, 0xbe, 0x64, 0xa8, 0x33, 0x3d,
 0x35, 0xb4, 0x4d, 0x3f, 0x6d, 0x83, 0xfe, 0xbe, 0xf2, 0xb9, 0xa9, 0xbe,
 0x4e, 0xde, 0x5d, 0xbe, 0x5e, 0x3b, 0x0f, 0xbe, 0x16, 0x88, 0xf6, 0x3f,
 0x0e, 0xf1, 0xf9, 0x3f, 0x59, 0xd3, 0xc7, 0xbc, 0xd3, 0xea, 0x46, 0x3e,
 0x2e, 0x4c, 0x99, 0x3f, 0x5d, 0xe4, 0x6e, 0xbf, 0xf9, 0x25, 0x10, 0xbe,
 0x46, 0x02, 0x31, 0x3f, 0x47, 0xeb, 0xc2, 0x3f, 0x71, 0x8b, 0x1c, 0x3e,
 0x23, 0x20, 0xc3, 0x3d, 0xbb, 0x9d, 0x16, 0x3f, 0xc9, 0x5d, 0x78, 0xbf,
 0x71, 0x06, 0x06, 0xbf, 0xb2, 0xf0, 0xb3, 0xbd, 0x02, 0x5b, 0x4a, 0xbe,
 0x6e, 0x7a, 0xfe, 0x3f, 0x13, 0x9c, 0xcc, 0x3f, 0x72, 0x2d, 0x9e, 0x3c,
 0x4b, 0xbb, 0x2d, 0x3c, 0xfd, 0xe2, 0x51, 0x3f, 0x1d, 0x1c, 0xb7, 0xbe,
 0xff, 0xf1, 0xcd, 0x3d, 0x1a, 0xa8, 0x1d, 0x3f, 0xf4, 0x31, 0x87, 0x3f,
 0xa5, 0xe6, 0xf6, 0xbd, 0x43, 0xe9, 0x10, 0xbe, 0xb1, 0x0c, 0x02, 0x3f,
 0x5f, 0x15, 0x16, 0xbf, 0x6b, 0x52, 0x35, 0xbe, 0x35, 0x7b, 0x92, 0xbe,
 0xc3, 0xe8, 0x5c, 0xbc, 0xb6, 0x28, 0xd9, 0x3f, 0xaa, 0x55, 0xa8, 0x3f,
 0x91, 0x97, 0xdf, 0xbd, 0x2b, 0xe2, 0x16, 0xbd, 0x99, 0x18, 0x84, 0x3f,
 0x7d, 0xb5, 0x02, 0xbf, 0xa5, 0x1a, 0x94, 0xbd, 0xab, 0x23, 0x83, 0x3f,
 0x6b, 0xed, 0xa9, 0x3f, 0xbc, 0x2e, 0x25, 0xbe, 0x70, 0x4c, 0x04, 0xbe,
 0x54, 0x98, 0x9d, 0x3e, 0x34, 0x50, 0x87, 0xbf, 0x90, 0x0f, 0x9f, 0xbd,
 0xa1, 0x0f, 0xe6, 0xbe, 0x16, 0x35, 0x48, 0xbe, 0x2f, 0xd3, 0xd1, 0x3f,
 0xfb, 0x91, 0xbd, 0x3f, 0x0c, 0x92, 0x01, 0xbe, 0xba, 0x89, 0x25, 0xbc,
 0xb8, 0xf3, 0x46, 0x3f, 0x0d, 0xc5, 0x31, 0xbf, 0x67, 0xad, 0x1c, 0x3e,
 0x38, 0x03, 0xa4, 0x3f, 0x36, 0x85, 0xa5, 0x3f, 0xfa, 0xe8, 0xa4, 0x3c,
 0xb0, 0x14, 0xb0, 0xbd, 0xe9, 0x33, 0xa4, 0x3e, 0xb8, 0x69, 0x54, 0xbf,
 0x28, 0x9f, 0xb6, 0x3e, 0x0b, 0x98, 0x22, 0xbf, 0x91, 0x5e, 0xe2, 0x3d,
 0xe1, 0x5a, 0x4c, 0x3f, 0x00, 0x40, 0xbc, 0x3f, 0x8b, 0x77, 0x3c, 0x3e,
 0xf3, 0xe2, 0x03, 0xbe, 0xd5, 0x13, 0x44, 0x3f, 0x5c, 0xa1, 0x29, 0xbf,
 0xa8, 0x26, 0x17, 0x3e, 0xe5, 0xaa, 0x7e, 0x3f, 0xc3, 0x65, 0xca, 0x3f,
 0xc8, 0x91, 0x26, 0xbe, 0xb7, 0x9a, 0x55, 0xbd, 0x33, 0xbb, 0x79, 0x3e,
 0xbb, 0xaf, 0x81, 0xbf, 0xfd, 0x24, 0x87, 0x3f, 0xd1, 0x60, 0x06, 0xbf,
 0xb9, 0xd5, 0xa1, 0x3c, 0x1f, 0x16, 0xce, 0x3f, 0x27, 0xc1, 0xbe, 0x3f,
 0x25, 0xc8, 0x20, 0x3e, 0x81, 0xc2, 0x40, 0x3e, 0xbb, 0x71, 0x05, 0x3f,
 0x30, 0xd6, 0x02, 0xbf, 0x00, 0xdc, 0xc2, 0x39, 0x1b, 0x21, 0x9e, 0x3f,
 0xcc, 0x7d, 0xd4, 0x3f, 0xd6, 0x54, 0x2d, 0x3e, 0x1b, 0x13, 0x1f, 0xbe,
 0xc0, 0x80, 0x1b, 0x3f, 0x6c, 0x17, 0x9e, 0xbf, 0x8c, 0x16, 0x35, 0xbf,
 0xde, 0x4e, 0xe1, 0xbd, 0xae, 0x48, 0x3e, 0x3e, 0xa5, 0xd0, 0x89, 0x40,
 0xb0, 0x9a, 0xd4, 0x3f, 0x40, 0xbf, 0x7f, 0xbd, 0x16, 0xe6, 0x8d, 0xbd,
 0x64, 0x0b, 0x1e, 0x3f, 0x00, 0xa3, 0xb7, 0xbf, 0x28, 0xb4, 0x9f, 0xbd,
 0xc5, 0x3c, 0x1c, 0xbf, 0xe4, 0x39, 0xfd, 0x3f, 0xac, 0xf1, 0x97, 0xbd,
 0xda, 0x3b, 0xe5, 0x3d, 0xd6, 0xf3, 0xa8, 0x3f, 0xeb, 0xb8, 0x65, 0xbf,
 0x0f, 0x39, 0x2c, 0xbf, 0x7e, 0xeb, 0x16, 0xbd, 0xe6, 0xd7, 0xac, 0x3d,
 0x5c, 0x76, 0x3f, 0x40, 0x56, 0x58, 0xd8, 0x3f, 0x69, 0xcc, 0x40, 0x3d,
 0x45, 0x4d, 0xa5, 0xbd, 0xb1, 0x07, 0x46, 0x3f, 0x67, 0x93, 0xa5, 0xbf,
 0x0f, 0x7e, 0x51, 0xbe, 0x89, 0xfa, 0xf3, 0x3d, 0x48, 0x71, 0xc6, 0x3f,
 0x7e, 0x2c, 0x84, 0xbc, 0x19, 0x0d, 0x80, 0x3d, 0x02, 0xeb, 0x4d, 0x3f,
 0x47, 0xef, 0x2d, 0xbf, 0x84, 0x12, 0x8c, 0xbe, 0x59, 0x71, 0x46, 0xbe,
 0xa3, 0x00, 0x9c, 0xbd, 0xda, 0xde, 0x18, 0x40, 0xd5, 0x26, 0x05, 0x40,
 0x0d, 0x21, 0xdb, 0x3d, 0x64, 0x52, 0x24, 0xbe, 0x88, 0x99, 0x15, 0x3f,
 0xd9, 0x50, 0x61, 0xbf, 0x85, 0x08, 0xca, 0xbd, 0x8a, 0x01, 0xb8, 0x3e,
 0x9b, 0x92, 0xc7, 0x3f, 0x99, 0x3c, 0x29, 0x3e, 0x74, 0x6d, 0x21, 0x3e,
 0x6a, 0xc3, 0x79, 0x3f, 0xe8, 0xd6, 0x07, 0xbf, 0xbc, 0x61, 0x34, 0xbe,
 0x07, 0xe2, 0xb8, 0xbe, 0x57, 0x93, 0x3c, 0xbe, 0x30, 0x86, 0x4d, 0x40,
 0x70, 0xb9, 0x08, 0x40, 0xf5, 0x8d, 0x45, 0xbd, 0x85, 0xad, 0xeb, 0x3d,
 0xf1, 0x91, 0x18, 0x3f, 0x0f, 0xce, 0x50, 0xbf, 0x4b, 0xdc, 0xfa, 0x3d,
 0x05, 0xba, 0x66, 0x3f, 0x59, 0x21, 0x04, 0x40, 0xb8, 0x01, 0x98, 0x3d,
 0x4c, 0xc0, 0x1c, 0x3e, 0x4d, 0x05, 0x2b, 0x3f, 0xe3, 0xbe, 0xb5, 0xbe,
 0x03, 0xf9, 0xc5, 0xbe, 0xd0, 0x7f, 0xcc, 0xbe, 0xb9, 0x49, 0x47, 0xbe,
 0xe1, 0x4a, 0x33, 0x40, 0x92, 0x52, 0x04, 0x40, 0x94, 0xc9, 0x1d, 0x3e,
 0xdb, 0x36, 0x3f, 0x3d, 0x42, 0x3b, 0x51, 0x3f, 0x18, 0xc0, 0x0c, 0xbf,
 0x25, 0x69, 0xf4, 0xbd, 0x94, 0xfe, 0x8d, 0x3f, 0x64, 0xc8, 0xcd, 0x3f,
 0xeb, 0x91, 0x1f, 0xbc, 0x7a, 0x17, 0x1b, 0x3e, 0x1c, 0xb9, 0x0a, 0x3f,
 0x9c, 0x3b, 0x27, 0xbf, 0xdf, 0x47, 0x06, 0xbe, 0x1c, 0xa9, 0xa8, 0xbe,
 0xf3, 0x66, 0x98, 0x3d, 0x0a, 0xa2, 0xf4, 0x3f, 0x2c, 0x16, 0x0a, 0x40,
 0x3b, 0x0b, 0x14, 0x3e, 0x97, 0x2f, 0xfc, 0x3d, 0xb8, 0x35, 0x5e, 0x3f,
 0x70, 0xa5, 0x14, 0xbf, 0xa0, 0xe9, 0xca, 0x3b, 0xab, 0x65, 0xe3, 0x3f,
 0x49, 0xef, 0xe2, 0x3f, 0x93, 0xd9, 0x04, 0xbd, 0xfe, 0xf0, 0x27, 0xbd,
 0x86, 0x89, 0xa0, 0x3e, 0x04, 0xc5, 0x40, 0xbf, 0xd1, 0x24, 0xa0, 0x3b,
 0xe4, 0xd7, 0xe1, 0xbe, 0xa0, 0x85, 0x01, 0x3e, 0x71, 0xcc, 0x06, 0x40,
 0xf8, 0x0d, 0x02, 0x40, 0x15, 0x30, 0xfb, 0x3d, 0xea, 0x08, 0x2d, 0x3c,
 0x9c, 0x1b, 0x55, 0x3f, 0x1f, 0xa6, 0x25, 0xbf, 0xe1, 0x94, 0xa5, 0x3d,
 0xb4, 0x6c, 0x8c, 0x3f, 0x24, 0xab, 0xe1, 0x3f, 0xd9, 0x32, 0xd1, 0xbd,
 0xa3, 0x0e, 0xa8, 0x3d, 0xe4, 0x5f, 0xfb, 0x3e, 0x88, 0x82, 0x81, 0xbf,
 0x23, 0xc7, 0x05, 0x3f, 0x41, 0x33, 0x19, 0xbf, 0x80, 0x22, 0x48, 0xbe,
 0x49, 0x91, 0xcd, 0x3f, 0x8f, 0x95, 0x16, 0x40, 0x55, 0x01, 0x0e, 0xbe,
 0x5c, 0x09, 0x50, 0xbd, 0xa3, 0xee, 0x7c, 0x3f, 0x01, 0x93, 0x13, 0xbf,
 0x03, 0x93, 0xbb, 0xbd, 0x25, 0x0e, 0xb0, 0x3f, 0x7d, 0xfb, 0xdf, 0x3f,
 0x40, 0xbe, 0x50, 0xbd, 0x18, 0x31, 0x8f, 0xbd, 0xc2, 0x16, 0x8e, 0x3e,
 0xf5, 0x6d, 0x97, 0xbf, 0x1d, 0xc0, 0xbf, 0x3f, 0x98, 0x0d, 0xee, 0xbe,
 0x83, 0xcb, 0xa3, 0x3d, 0x0d, 0xf6, 0x1d, 0x40, 0x6f, 0x95, 0x0b, 0x40,
 0xe6, 0x71, 0x18, 0x3e, 0x22, 0x6d, 0xc1, 0x3d, 0xc9, 0xe2, 0x54, 0x3f,
 0x99, 0x59, 0x10, 0xbf, 0xe8, 0xcb, 0x3a, 0xbe, 0x2e, 0xbf, 0xb3, 0x3f,
 0x59, 0x08, 0x0d, 0x40, 0x80, 0x38, 0x2b, 0x3d, 0xd6, 0x7a, 0x48, 0x3e,
 0x6d, 0x26, 0x39, 0x3f, 0x6a, 0xae, 0x3a, 0xbf, 0x13, 0xd5, 0x0e, 0xbf,
 0xab, 0x61, 0x2b, 0xbe, 0x69, 0x88, 0x3b, 0xbe, 0xe4, 0x31, 0x82, 0x40,
 0x8b, 0xfa, 0xd7, 0x3f, 0x77, 0xc2, 0xfc, 0x3d, 0x07, 0x65, 0x31, 0x3e,
 0x8f, 0x23, 0x0e, 0x3f, 0xcd, 0x0f, 0xb3, 0xbf, 0x84, 0x60, 0x39, 0x3e,
 0xf5, 0x2a, 0xcd, 0xbe, 0x10, 0x34, 0xb2, 0x3f, 0xeb, 0x0d, 0xa2, 0xbd,
 0xea, 0x97, 0x1e, 0x3e, 0x1a, 0x87, 0xaa, 0x3f, 0xe3, 0x55, 0x02, 0xbf,
 0xd0, 0xb6, 0xd9, 0xbe, 0x2f, 0xb2, 0x01, 0xbd, 0x34, 0x49, 0x70, 0x3c,
 0xe4, 0x36, 0x2a, 0x40, 0x43, 0xd3, 0xcd, 0x3f, 0xce, 0xdd, 0x9c, 0x3d,
 0xe9, 0x2f, 0x3e, 0xbe, 0xc8, 0x81, 0x0a, 0x3f, 0x8e, 0xc9, 0xa2, 0xbf,
 0x44, 0x54, 0x8d, 0x3d, 0xd3, 0x3c, 0x96, 0xbd, 0x5c, 0xb2, 0x98, 0x3f,
 0x2b, 0x67, 0xbd, 0xbd, 0x8a, 0x8a, 0x20, 0xbe, 0x99, 0xa3, 0x3f, 0x3f,
 0x94, 0x7b, 0x61, 0xbe, 0x07, 0x09, 0xd6, 0xbe, 0x86, 0x77, 0xe3, 0x3d,
 0x3c, 0x13, 0x16, 0xbe, 0x30, 0x2e, 0x1b, 0x40, 0x4c, 0x1e, 0xb4, 0x3f,
 0x82, 0x07, 0xe2, 0xbd, 0xbe, 0x44, 0x65, 0xbd, 0x47, 0x56, 0xcd, 0x3e,
 0x54, 0x3b, 0x39, 0xbf, 0xb4, 0xed, 0x99, 0xbd, 0x7d, 0x5a, 0x6a, 0x3e,
 0xd2, 0xee, 0xc6, 0x3f, 0xb4, 0x3e, 0x0a, 0xbe, 0x8e, 0xd7, 0x10, 0x3e,
 0xeb, 0x69, 0x20, 0x3f, 0xf7, 0x6f, 0x42, 0xbd, 0x5f, 0xbf, 0x32, 0xbe,
 0x9b, 0xbe, 0xfb, 0xbc, 0x89, 0x7c, 0x15, 0x3e, 0x76, 0xb2, 0x26, 0x40,
 0x6a, 0xd4, 0xd3, 0x3f, 0xba, 0xef, 0x32, 0x3d, 0x80, 0x81, 0x20, 0xbe,
 0x3a, 0xd3, 0x3b, 0x3f, 0x4c, 0x42, 0x36, 0xbf, 0x19, 0x50, 0xc1, 0x3d,
 0x5d, 0xff, 0x46, 0x3f, 0xa1, 0x13, 0xe6, 0x3f, 0x76, 0x21, 0xa4, 0xbd,
 0x7c, 0xc0, 0x44, 0xbd, 0xf4, 0x8e, 0x83, 0x3e, 0xab, 0x1a, 0x6d, 0xbd,
 0x35, 0x37, 0xbd, 0xbe, 0xdc, 0xdf, 0xb8, 0xbb, 0x46, 0x4c, 0xd2, 0xbd,
 0x45, 0xb4, 0x13, 0x40, 0xa1, 0xfd, 0xf2, 0x3f, 0x3f, 0x5f, 0xbf, 0xbd,
 0xd0, 0xfc, 0x11, 0x3d, 0xd6, 0xad, 0x35, 0x3f, 0x2c, 0xf2, 0x27, 0xbf,
 0xe3, 0xfa, 0x51, 0xbd, 0x79, 0x3e, 0x7f, 0x3f, 0xba, 0xf6, 0xba, 0x3f,
 0x1e, 0x5d, 0xfb, 0xbd, 0x8c, 0xc2, 0xa0, 0x3d, 0x6b, 0x1e, 0x5a, 0x3e,
 0x92, 0x87, 0xce, 0xbe, 0xad, 0xaf, 0x15, 0xbe, 0xd1, 0x18, 0xa5, 0xbe,
 0x9b, 0x81, 0x02, 0xbc, 0x55, 0xf7, 0xc3, 0x3f, 0x1d, 0x10, 0xc9, 0x3f,
 0x8f, 0x9d, 0xca, 0xbd, 0x9a, 0x10, 0x22, 0xbe, 0x2e, 0xb3, 0x25, 0x3f,
 0x77, 0x77, 0x0e, 0xbf, 0x54, 0x65, 0xd5, 0xbd, 0xd1, 0x87, 0xa8, 0x3f,
 0x9c, 0x67, 0xc1, 0x3f, 0x6a, 0xb7, 0x45, 0x3e, 0x84, 0x22, 0x43, 0x3e,
 0x5b, 0x40, 0x4a, 0xbb, 0xb5, 0x1d, 0xe8, 0xbe, 0x6f, 0x29, 0x42, 0xbd,
 0x2e, 0xd3, 0xdb, 0xbe, 0x87, 0x36, 0x23, 0xbd, 0xf6, 0x8c, 0xaa, 0x3f,
 0xae, 0x81, 0xb5, 0x3f, 0xff, 0x26, 0x4b, 0xbd, 0x2f, 0xf4, 0x49, 0x3d,
 0xe2, 0xeb, 0x1f, 0x3f, 0x73, 0x09, 0x3c, 0xbf, 0xa4, 0x4a, 0x54, 0xbd,
 0xec, 0x83, 0xbe, 0x3f, 0x12, 0xb5, 0xb4, 0x3f, 0x37, 0x9d, 0xed, 0x3d,
 0xa8, 0x51, 0x01, 0xbe, 0x7c, 0xde, 0x79, 0xbe, 0x31, 0x7e, 0x65, 0xbf,
 0x87, 0x74, 0x3a, 0x3f, 0xe9, 0x01, 0xfd, 0xbe, 0x1d, 0xac, 0xc0, 0x3d,
 0x04, 0x92, 0x6d, 0x3f, 0x05, 0x28, 0xb4, 0x3f, 0x30, 0x44, 0xb1, 0xbb,
 0x94, 0x97, 0x07, 0xbe, 0x7b, 0xa7, 0x56, 0x3e, 0x20, 0x18, 0xf3, 0xbe,
 0x8b, 0xb4, 0xf2, 0xbd, 0x93, 0x60, 0x91, 0x3f, 0xd6, 0xe6, 0x96, 0x3f,
 0x31, 0x2c, 0x61, 0x3d, 0x40, 0xa7, 0x2d, 0xbc, 0x7e, 0x46, 0x7e, 0x3c,
 0x2e, 0x66, 0x48, 0xbf, 0x1c, 0x8f, 0xea, 0x3f, 0x40, 0x61, 0xce, 0xbe,
 0x45, 0xdf, 0xff, 0x3d, 0xe7, 0x8f, 0x1a, 0x40, 0x86, 0xc6, 0xc6, 0x3f,
 0x25, 0xec, 0xbb, 0x3c, 0xbe, 0x25, 0xc2, 0xbd, 0x90, 0x71, 0xea, 0x3d,
 0xc7, 0xd8, 0xa3, 0xbe, 0x6a, 0x0d, 0x17, 0x3e, 0xc4, 0x61, 0xa7, 0x3f,
 0x95, 0xd4, 0xe1, 0x3f, 0x3d, 0x24, 0x45, 0x3e, 0xa4, 0x54, 0x3b, 0xbd,
 0x31, 0x36, 0x39, 0x3e, 0x9c, 0xdb, 0x09, 0xbf, 0xa2, 0xff, 0xff, 0xff,
 0x04, 0x00, 0x00, 0x00, 0x40, 0x00, 0x00, 0x00, 0xe6, 0xf4, 0xb1, 0xbd,
 0x5a, 0xe7, 0x33, 0x3f, 0x14, 0xf3, 0x86, 0x3f, 0x91, 0x72, 0x44, 0xbe,
 0x86, 0x88, 0xcd, 0xbe, 0xba, 0xb7, 0x2f, 0xbe, 0x69, 0xe7, 0x00, 0xbe,
 0x6a, 0xfb, 0x00, 0x40, 0xa4, 0x14, 0x92, 0x3f, 0x06, 0x53, 0x4c, 0xbe,
 0x3a, 0x3e, 0x1b, 0x3f, 0x8b, 0xce, 0xb9, 0x3e, 0x19, 0xde, 0x45, 0x3f,
 0xc5, 0x2c, 0xf0, 0xbe, 0x36, 0x4a, 0x6c, 0xbe, 0xc5, 0x11, 0xc5, 0xbd,
 0xee, 0xff, 0xff, 0xff, 0x04, 0x00, 0x00, 0x00, 0x04, 0x00, 0x00, 0x00,
 0x9e, 0xd7, 0x2a, 0xbf, 0x00, 0x00, 0x06, 0x00, 0x08, 0x00, 0x04, 0x00,
 0x06, 0x00, 0x00, 0x00, 0x04, 0x00, 0x00, 0x00, 0x40, 0x00, 0x00, 0x00,
 0x24, 0x81, 0x35, 0xc0, 0xf5, 0x96, 0x98, 0x3e, 0x38, 0x6b, 0x18, 0xbd,
 0xc4, 0x42, 0x02, 0xbd, 0xf5, 0x70, 0xcd, 0x3f, 0x8a, 0x60, 0x9b, 0x3f,
 0x90, 0xe3, 0x72, 0x3f, 0xb5, 0x9b, 0x78, 0x3e, 0x41, 0xf8, 0x90, 0xbe,
 0xbd, 0x8f, 0x40, 0xc0, 0x90, 0x82, 0xfe, 0x3e, 0x15, 0x59, 0x39, 0xbd,
 0xea, 0xcf, 0xbd, 0x3e, 0x0d, 0x6d, 0xc2, 0x3f, 0x59, 0x9f, 0xac, 0x3f,
 0x13, 0x85, 0x95, 0x3f, 0x70, 0xf8, 0xff, 0xff, 0x74, 0xf8, 0xff, 0xff,
 0x0f, 0x00, 0x00, 0x00, 0x4d, 0x4c, 0x49, 0x52, 0x20, 0x43, 0x6f, 0x6e,
 0x76, 0x65, 0x72, 0x74, 0x65, 0x64, 0x2e, 0x00, 0x01, 0x00, 0x00, 0x00,
 0x14, 0x00, 0x00, 0x00, 0x00, 0x00, 0x0e, 0x00, 0x18, 0x00, 0x14, 0x00,
 0x10, 0x00, 0x0c, 0x00, 0x08, 0x00, 0x04, 0x00, 0x0e, 0x00, 0x00, 0x00,
 0x14, 0x00, 0x00, 0x00, 0x1c, 0x00, 0x00, 0x00, 0xc4, 0x01, 0x00, 0x00,
 0xc8, 0x01, 0x00, 0x00, 0xcc, 0x01, 0x00, 0x00, 0x04, 0x00, 0x00, 0x00,
 0x6d, 0x61, 0x69, 0x6e, 0x00, 0x00, 0x00, 0x00, 0x06, 0x00, 0x00, 0x00,
 0x5c, 0x01, 0x00, 0x00, 0xf8, 0x00, 0x00, 0x00, 0xc0, 0x00, 0x00, 0x00,
 0x70, 0x00, 0x00, 0x00, 0x38, 0x00, 0x00, 0x00, 0x04, 0x00, 0x00, 0x00,
 0x5a, 0xff, 0xff, 0xff, 0x0c, 0x00, 0x00, 0x00, 0x10, 0x00, 0x00, 0x00,
 0x04, 0x00, 0x00, 0x00, 0x01, 0x00, 0x00, 0x00, 0x0d, 0x00, 0x00, 0x00,
 0x01, 0x00, 0x00, 0x00, 0x0c, 0x00, 0x00, 0x00, 0x00, 0x00, 0x0e, 0x00,
 0x18, 0x00, 0x14, 0x00, 0x10, 0x00, 0x0c, 0x00, 0x0b, 0x00, 0x04, 0x00,
 0x0e, 0x00, 0x00, 0x00, 0x14, 0x00, 0x00, 0x00, 0x00, 0x00, 0x00, 0x08,
 0x10, 0x00, 0x00, 0x00, 0x14, 0x00, 0x00, 0x00, 0x03, 0x00, 0x00, 0x00,
 0x2c, 0xf9, 0xff, 0xff, 0x01, 0x00, 0x00, 0x00, 0x0c, 0x00, 0x00, 0x00,
 0x03, 0x00, 0x00, 0x00, 0x0b, 0x00, 0x00, 0x00, 0x03, 0x00, 0x00, 0x00,
 0x02, 0x00, 0x00, 0x00, 0x8e, 0xff, 0xff, 0xff, 0x1c, 0x00, 0x00, 0x00,
 0x00, 0x00, 0x00, 0x08, 0x1c, 0x00, 0x00, 0x00, 0x20, 0x00, 0x00, 0x00,
 0x03, 0x00, 0x00, 0x00, 0x00, 0x00, 0x06, 0x00, 0x08, 0x00, 0x07, 0x00,
 0x06, 0x00, 0x00, 0x00, 0x00, 0x00, 0x00, 0x01, 0x01, 0x00, 0x00, 0x00,
 0x0b, 0x00, 0x00, 0x00, 0x03, 0x00, 0x00, 0x00, 0x0a, 0x00, 0x00, 0x00,
 0x04, 0x00, 0x00, 0x00, 0x01, 0x00, 0x00, 0x00, 0x00, 0x00, 0x0a, 0x00,
 0x10, 0x00, 0x0c, 0x00, 0x08, 0x00, 0x04, 0x00, 0x0a, 0x00, 0x00, 0x00,
 0x0c, 0x00, 0x00, 0x00, 0x10, 0x00, 0x00, 0x00, 0x02, 0x00, 0x00, 0x00,
 0x01, 0x00, 0x00, 0x00, 0x0a, 0x00, 0x00, 0x00, 0x02, 0x00, 0x00, 0x00,
 0x09, 0x00, 0x00, 0x00, 0x05, 0x00, 0x00, 0x00, 0x00, 0x00, 0x0e, 0x00,
 0x1a, 0x00, 0x14, 0x00, 0x10, 0x00, 0x0c, 0x00, 0x0b, 0x00, 0x04, 0x00,
 0x0e, 0x00, 0x00, 0x00, 0x24, 0x00, 0x00, 0x00, 0x00, 0x00, 0x00, 0x05,
 0x34, 0x00, 0x00, 0x00, 0x38, 0x00, 0x00, 0x00, 0x01, 0x00, 0x00, 0x00,
 0x00, 0x00, 0x0e, 0x00, 0x18, 0x00, 0x17, 0x00, 0x10, 0x00, 0x0c, 0x00,
 0x08, 0x00, 0x04, 0x00, 0x0e, 0x00, 0x00, 0x00, 0x02, 0x00, 0x00, 0x00,
 0x01, 0x00, 0x00, 0x00, 0x02, 0x00, 0x00, 0x00, 0x01, 0x00, 0x00, 0x00,
 0x00, 0x00, 0x00, 0x01, 0x01, 0x00, 0x00, 0x00, 0x09, 0x00, 0x00, 0x00,
 0x01, 0x00, 0x00, 0x00, 0x08, 0x00, 0x00, 0x00, 0x00, 0x00, 0x0e, 0x00,
 0x14, 0x00, 0x00, 0x00, 0x10, 0x00, 0x0c, 0x00, 0x0b, 0x00, 0x04, 0x00,
 0x0e, 0x00, 0x00, 0x00, 0x1c, 0x00, 0x00, 0x00, 0x00, 0x00, 0x00, 0x01,
 0x28, 0x00, 0x00, 0x00, 0x2c, 0x00, 0x00, 0x00, 0x0c, 0x00, 0x14, 0x00,
 0x13, 0x00, 0x0c, 0x00, 0x08, 0x00, 0x07, 0x00, 0x0c, 0x00, 0x00, 0x00,
 0x00, 0x00, 0x00, 0x01, 0x01, 0x00, 0x00, 0x00, 0x01, 0x00, 0x00, 0x00,
 0x00, 0x00, 0x00, 0x01, 0x01, 0x00, 0x00, 0x00, 0x08, 0x00, 0x00, 0x00,
 0x03, 0x00, 0x00, 0x00, 0x00, 0x00, 0x00, 0x00, 0x06, 0x00, 0x00, 0x00,
 0x07, 0x00, 0x00, 0x00, 0x01, 0x00, 0x00, 0x00, 0x0d, 0x00, 0x00, 0x00,
 0x01, 0x00, 0x00, 0x00, 0x00, 0x00, 0x00, 0x00, 0x0e, 0x00, 0x00, 0x00,
 0x60, 0x05, 0x00, 0x00, 0xe4, 0x04, 0x00, 0x00, 0x9c, 0x04, 0x00, 0x00,
 0x4c, 0x04, 0x00, 0x00, 0x00, 0x04, 0x00, 0x00, 0xc0, 0x03, 0x00, 0x00,
 0x4c, 0x03, 0x00, 0x00, 0xa4, 0x02, 0x00, 0x00, 0xf0, 0x01, 0x00, 0x00,
 0x90, 0x01, 0x00, 0x00, 0x40, 0x01, 0x00, 0x00, 0xbc, 0x00, 0x00, 0x00,
 0x50, 0x00, 0x00, 0x00, 0x04, 0x00, 0x00, 0x00, 0xee, 0xfa, 0xff, 0xff,
 0x00, 0x00, 0x00, 0x01, 0x10, 0x00, 0x00, 0x00, 0x10, 0x00, 0x00, 0x00,
 0x0e, 0x00, 0x00, 0x00, 0x28, 0x00, 0x00, 0x00, 0xd8, 0xfa, 0xff, 0xff,
 0x1b, 0x00, 0x00, 0x00, 0x53, 0x74, 0x61, 0x74, 0x65, 0x66, 0x75, 0x6c,
 0x50, 0x61, 0x72, 0x74, 0x69, 0x74, 0x69, 0x6f, 0x6e, 0x65, 0x64, 0x43,
 0x61, 0x6c, 0x6c, 0x5f, 0x31, 0x3a, 0x30, 0x00, 0x02, 0x00, 0x00, 0x00,
 0x01, 0x00, 0x00, 0x00, 0x01, 0x00, 0x00, 0x00, 0x36, 0xfb, 0xff, 0xff,
 0x00, 0x00, 0x00, 0x01, 0x10, 0x00, 0x00, 0x00, 0x10, 0x00, 0x00, 0x00,
 0x0d, 0x00, 0x00, 0x00, 0x48, 0x00, 0x00, 0x00, 0x20, 0xfb, 0xff, 0xff,
 0x38, 0x00, 0x00, 0x00, 0x73, 0x65, 0x71, 0x75, 0x65, 0x6e, 0x74, 0x69,
 0x61, 0x6c, 0x5f, 0x31, 0x2f, 0x64, 0x65, 0x6e, 0x73, 0x65, 0x5f, 0x31,
 0x5f, 0x32, 0x2f, 0x4d, 0x61, 0x74, 0x4d, 0x75, 0x6c, 0x3b, 0x73, 0x65,
 0x71, 0x75, 0x65, 0x6e, 0x74, 0x69, 0x61, 0x6c, 0x5f, 0x31, 0x2f, 0x64,
 0x65, 0x6e, 0x73, 0x65, 0x5f, 0x31, 0x5f, 0x32, 0x2f, 0x41, 0x64, 0x64,
 0x00, 0x00, 0x00, 0x00, 0x02, 0x00, 0x00, 0x00, 0x01, 0x00, 0x00, 0x00,
 0x01, 0x00, 0x00, 0x00, 0x9e, 0xfb, 0xff, 0xff, 0x00, 0x00, 0x00, 0x01,
 0x10, 0x00, 0x00, 0x00, 0x10, 0x00, 0x00, 0x00, 0x0c, 0x00, 0x00, 0x00,
 0x60, 0x00, 0x00, 0x00, 0x88, 0xfb, 0xff, 0xff, 0x52, 0x00, 0x00, 0x00,
 0x73, 0x65, 0x71, 0x75, 0x65, 0x6e, 0x74, 0x69, 0x61, 0x6c, 0x5f, 0x31,
 0x2f, 0x64, 0x65, 0x6e, 0x73, 0x65, 0x5f, 0x31, 0x2f, 0x4d, 0x61, 0x74,
 0x4d, 0x75, 0x6c, 0x3b, 0x73, 0x65, 0x71, 0x75, 0x65, 0x6e, 0x74, 0x69,
 0x61, 0x6c, 0x5f, 0x31, 0x2f, 0x64, 0x65, 0x6e, 0x73, 0x65, 0x5f, 0x31,
 0x2f, 0x52, 0x65, 0x6c, 0x75, 0x3b, 0x73, 0x65, 0x71, 0x75, 0x65, 0x6e,
 0x74, 0x69, 0x61, 0x6c, 0x5f, 0x31, 0x2f, 0x64, 0x65, 0x6e, 0x73, 0x65,
 0x5f, 0x31, 0x2f, 0x42, 0x69, 0x61, 0x73, 0x41, 0x64, 0x64, 0x00, 0x00,
 0x02, 0x00, 0x00, 0x00, 0x01, 0x00, 0x00, 0x00, 0x10, 0x00, 0x00, 0x00,
 0x1e, 0xfc, 0xff, 0xff, 0x00, 0x00, 0x00, 0x01, 0x10, 0x00, 0x00, 0x00,
 0x10, 0x00, 0x00, 0x00, 0x0b, 0x00, 0x00, 0x00, 0x2c, 0x00, 0x00, 0x00,
 0x08, 0xfc, 0xff, 0xff, 0x1e, 0x00, 0x00, 0x00, 0x73, 0x65, 0x71, 0x75,
 0x65, 0x6e, 0x74, 0x69, 0x61, 0x6c, 0x5f, 0x31, 0x2f, 0x66, 0x6c, 0x61,
 0x74, 0x74, 0x65, 0x6e, 0x5f, 0x31, 0x2f, 0x52, 0x65, 0x73, 0x68, 0x61,
 0x70, 0x65, 0x00, 0x00, 0x02, 0x00, 0x00, 0x00, 0x01, 0x00, 0x00, 0x00,
 0x90, 0x00, 0x00, 0x00, 0x6a, 0xfc, 0xff, 0xff, 0x00, 0x00, 0x00, 0x01,
 0x10, 0x00, 0x00, 0x00, 0x10, 0x00, 0x00, 0x00, 0x0a, 0x00, 0x00, 0x00,
 0x34, 0x00, 0x00, 0x00, 0x54, 0xfc, 0xff, 0xff, 0x26, 0x00, 0x00, 0x00,
 0x73, 0x65, 0x71, 0x75, 0x65, 0x6e, 0x74, 0x69, 0x61, 0x6c, 0x5f, 0x31,
 0x2f, 0x6d, 0x61, 0x78, 0x5f, 0x70, 0x6f, 0x6f, 0x6c, 0x69, 0x6e, 0x67,
 0x32, 0x64, 0x5f, 0x31, 0x2f, 0x4d, 0x61, 0x78, 0x50, 0x6f, 0x6f, 0x6c,
 0x32, 0x64, 0x00, 0x00, 0x04, 0x00, 0x00, 0x00, 0x01, 0x00, 0x00, 0x00,
 0x09, 0x00, 0x00, 0x00, 0x01, 0x00, 0x00, 0x00, 0x10, 0x00, 0x00, 0x00,
 0xc6, 0xfc, 0xff, 0xff, 0x00, 0x00, 0x00, 0x01, 0x10, 0x00, 0x00, 0x00,
 0x10, 0x00, 0x00, 0x00, 0x09, 0x00, 0x00, 0x00, 0x88, 0x00, 0x00, 0x00,
 0xb0, 0xfc, 0xff, 0xff, 0x79, 0x00, 0x00, 0x00, 0x73, 0x65, 0x71, 0x75,
 0x65, 0x6e, 0x74, 0x69, 0x61, 0x6c, 0x5f, 0x31, 0x2f, 0x63, 0x6f, 0x6e,
 0x76, 0x32, 0x64, 0x5f, 0x31, 0x2f, 0x52, 0x65, 0x6c, 0x75, 0x3b, 0x73,
 0x65, 0x71, 0x75, 0x65, 0x6e, 0x74, 0x69, 0x61, 0x6c, 0x5f, 0x31, 0x2f,
 0x63, 0x6f, 0x6e, 0x76, 0x32, 0x64, 0x5f, 0x31, 0x2f, 0x42, 0x69, 0x61,
 0x73, 0x41, 0x64, 0x64, 0x3b, 0x73, 0x65, 0x71, 0x75, 0x65, 0x6e, 0x74,
 0x69, 0x61, 0x6c, 0x5f, 0x31, 0x2f, 0x63, 0x6f, 0x6e, 0x76, 0x32, 0x64,
 0x5f, 0x31, 0x2f, 0x63, 0x6f, 0x6e, 0x76, 0x6f, 0x6c, 0x75, 0x74, 0x69,
 0x6f, 0x6e, 0x3b, 0x73, 0x65, 0x71, 0x75, 0x65, 0x6e, 0x74, 0x69, 0x61,
 0x6c, 0x5f, 0x31, 0x2f, 0x63, 0x6f, 0x6e, 0x76, 0x32, 0x64, 0x5f, 0x31,
 0x2f, 0x53, 0x71, 0x75, 0x65, 0x65, 0x7a, 0x65, 0x31, 0x00, 0x00, 0x00,
 0x04, 0x00, 0x00, 0x00, 0x01, 0x00, 0x00, 0x00, 0x12, 0x00, 0x00, 0x00,
 0x01, 0x00, 0x00, 0x00, 0x10, 0x00, 0x00, 0x00, 0x76, 0xfd, 0xff, 0xff,
 0x00, 0x00, 0x00, 0x01, 0x10, 0x00, 0x00, 0x00, 0x10, 0x00, 0x00, 0x00,
 0x08, 0x00, 0x00, 0x00, 0x88, 0x00, 0x00, 0x00, 0x60, 0xfd, 0xff, 0xff,
 0x78, 0x00, 0x00, 0x00, 0x73, 0x65, 0x71, 0x75, 0x65, 0x6e, 0x74, 0x69,
 0x61, 0x6c, 0x5f, 0x31, 0x2f, 0x63, 0x6f, 0x6e, 0x76, 0x32, 0x64, 0x5f,
 0x31, 0x2f, 0x52, 0x65, 0x6c, 0x75, 0x3b, 0x73, 0x65, 0x71, 0x75, 0x65,
 0x6e, 0x74, 0x69, 0x61, 0x6c, 0x5f, 0x31, 0x2f, 0x63, 0x6f, 0x6e, 0x76,
 0x32, 0x64, 0x5f, 0x31, 0x2f, 0x42, 0x69, 0x61, 0x73, 0x41, 0x64, 0x64,
 0x3b, 0x73, 0x65, 0x71, 0x75, 0x65, 0x6e, 0x74, 0x69, 0x61, 0x6c, 0x5f,
 0x31, 0x2f, 0x63, 0x6f, 0x6e, 0x76, 0x32, 0x64, 0x5f, 0x31, 0x2f, 0x63,
 0x6f, 0x6e, 0x76, 0x6f, 0x6c, 0x75, 0x74, 0x69, 0x6f, 0x6e, 0x3b, 0x73,
 0x65, 0x71, 0x75, 0x65, 0x6e, 0x74, 0x69, 0x61, 0x6c, 0x5f, 0x31, 0x2f,
 0x63, 0x6f, 0x6e, 0x76, 0x32, 0x64, 0x5f, 0x31, 0x2f, 0x53, 0x71, 0x75,
 0x65, 0x65, 0x7a, 0x65, 0x00, 0x00, 0x00, 0x00, 0x01, 0x00, 0x00, 0x00,
 0x10, 0x00, 0x00, 0x00, 0x1a, 0xfe, 0xff, 0xff, 0x00, 0x00, 0x00, 0x01,
 0x10, 0x00, 0x00, 0x00, 0x10, 0x00, 0x00, 0x00, 0x07, 0x00, 0x00, 0x00,
 0x30, 0x00, 0x00, 0x00, 0x04, 0xfe, 0xff, 0xff, 0x21, 0x00, 0x00, 0x00,
 0x73, 0x65, 0x71, 0x75, 0x65, 0x6e, 0x74, 0x69, 0x61, 0x6c, 0x5f, 0x31,
 0x2f, 0x63, 0x6f, 0x6e, 0x76, 0x32, 0x64, 0x5f, 0x31, 0x2f, 0x63, 0x6f,
 0x6e, 0x76, 0x6f, 0x6c, 0x75, 0x74, 0x69, 0x6f, 0x6e, 0x00, 0x00, 0x00,
 0x04, 0x00, 0x00, 0x00, 0x10, 0x00, 0x00, 0x00, 0x03, 0x00, 0x00, 0x00,
 0x0b, 0x00, 0x00, 0x00, 0x01, 0x00, 0x00, 0x00, 0x00, 0x00, 0x16, 0x00,
 0x1c, 0x00, 0x18, 0x00, 0x17, 0x00, 0x10, 0x00, 0x0c, 0x00, 0x08, 0x00,
 0x00, 0x00, 0x00, 0x00, 0x00, 0x00, 0x07, 0x00, 0x16, 0x00, 0x00, 0x00,
 0x00, 0x00, 0x00, 0x01, 0x14, 0x00, 0x00, 0x00, 0x14, 0x00, 0x00, 0x00,
 0x06, 0x00, 0x00, 0x00, 0x00, 0x00, 0x00, 0x02, 0x1c, 0x00, 0x00, 0x00,
 0x78, 0xfe, 0xff, 0xff, 0x0e, 0x00, 0x00, 0x00, 0x61, 0x72, 0x69, 0x74,
 0x68, 0x2e, 0x63, 0x6f, 0x6e, 0x73, 0x74, 0x61, 0x6e, 0x74, 0x00, 0x00,
 0x01, 0x00, 0x00, 0x00, 0x02, 0x00, 0x00, 0x00, 0xc6, 0xfe, 0xff, 0xff,
 0x00, 0x00, 0x00, 0x01, 0x10, 0x00, 0x00, 0x00, 0x10, 0x00, 0x00, 0x00,
 0x05, 0x00, 0x00, 0x00, 0x28, 0x00, 0x00, 0x00, 0xb0, 0xfe, 0xff, 0xff,
 0x1b, 0x00, 0x00, 0x00, 0x73, 0x65, 0x71, 0x75, 0x65, 0x6e, 0x74, 0x69,
 0x61, 0x6c, 0x5f, 0x31, 0x2f, 0x64, 0x65, 0x6e, 0x73, 0x65, 0x5f, 0x31,
 0x2f, 0x4d, 0x61, 0x74, 0x4d, 0x75, 0x6c, 0x00, 0x02, 0x00, 0x00, 0x00,
 0x10, 0x00, 0x00, 0x00, 0x90, 0x00, 0x00, 0x00, 0x0e, 0xff, 0xff, 0xff,
 0x00, 0x00, 0x00, 0x01, 0x10, 0x00, 0x00, 0x00, 0x10, 0x00, 0x00, 0x00,
 0x04, 0x00, 0x00, 0x00, 0x2c, 0x00, 0x00, 0x00, 0xf8, 0xfe, 0xff, 0xff,
 0x1d, 0x00, 0x00, 0x00, 0x73, 0x65, 0x71, 0x75, 0x65, 0x6e, 0x74, 0x69,
 0x61, 0x6c, 0x5f, 0x31, 0x2f, 0x64, 0x65, 0x6e, 0x73, 0x65, 0x5f, 0x31,
 0x5f, 0x32, 0x2f, 0x4d, 0x61, 0x74, 0x4d, 0x75, 0x6c, 0x00, 0x00, 0x00,
 0x02, 0x00, 0x00, 0x00, 0x01, 0x00, 0x00, 0x00, 0x10, 0x00, 0x00, 0x00,
 0x5a, 0xff, 0xff, 0xff, 0x00, 0x00, 0x00, 0x01, 0x10, 0x00, 0x00, 0x00,
 0x10, 0x00, 0x00, 0x00, 0x03, 0x00, 0x00, 0x00, 0x28, 0x00, 0x00, 0x00,
 0x44, 0xff, 0xff, 0xff, 0x1a, 0x00, 0x00, 0x00, 0x73, 0x65, 0x71, 0x75,
 0x65, 0x6e, 0x74, 0x69, 0x61, 0x6c, 0x5f, 0x31, 0x2f, 0x64, 0x65, 0x6e,
 0x73, 0x65, 0x5f, 0x31, 0x5f, 0x32, 0x2f, 0x41, 0x64, 0x64, 0x00, 0x00,
 0x01, 0x00, 0x00, 0x00, 0x01, 0x00, 0x00, 0x00, 0x9e, 0xff, 0xff, 0xff,
 0x00, 0x00, 0x00, 0x01, 0x10, 0x00, 0x00, 0x00, 0x10, 0x00, 0x00, 0x00,
 0x02, 0x00, 0x00, 0x00, 0x44, 0x00, 0x00, 0x00, 0x88, 0xff, 0xff, 0xff,
 0x36, 0x00, 0x00, 0x00, 0x73, 0x65, 0x71, 0x75, 0x65, 0x6e, 0x74, 0x69,
 0x61, 0x6c, 0x5f, 0x31, 0x2f, 0x64, 0x65, 0x6e, 0x73, 0x65, 0x5f, 0x31,
 0x2f, 0x52, 0x65, 0x6c, 0x75, 0x3b, 0x73, 0x65, 0x71, 0x75, 0x65, 0x6e,
 0x74, 0x69, 0x61, 0x6c, 0x5f, 0x31, 0x2f, 0x64, 0x65, 0x6e, 0x73, 0x65,
 0x5f, 0x31, 0x2f, 0x42, 0x69, 0x61, 0x73, 0x41, 0x64, 0x64, 0x00, 0x00,
 0x01, 0x00, 0x00, 0x00, 0x10, 0x00, 0x00, 0x00, 0x00, 0x00, 0x16, 0x00,
 0x18, 0x00, 0x14, 0x00, 0x00, 0x00, 0x10, 0x00, 0x0c, 0x00, 0x08, 0x00,
 0x00, 0x00, 0x00, 0x00, 0x00, 0x00, 0x07, 0x00, 0x16, 0x00, 0x00, 0x00,
 0x00, 0x00, 0x00, 0x01, 0x14, 0x00, 0x00, 0x00, 0x14, 0x00, 0x00, 0x00,
 0x01, 0x00, 0x00, 0x00, 0x30, 0x00, 0x00, 0x00, 0x04, 0x00, 0x04, 0x00,
 0x04, 0x00, 0x00, 0x00, 0x1e, 0x00, 0x00, 0x00, 0x73, 0x65, 0x72, 0x76,
 0x69, 0x6e, 0x67, 0x5f, 0x64, 0x65, 0x66, 0x61, 0x75, 0x6c, 0x74, 0x5f,
 0x6b, 0x65, 0x72, 0x61, 0x73, 0x5f, 0x74, 0x65, 0x6e, 0x73, 0x6f, 0x72,
 0x3a, 0x30, 0x00, 0x00, 0x04, 0x00, 0x00, 0x00, 0x01, 0x00, 0x00, 0x00,
 0x14, 0x00, 0x00, 0x00, 0x0b, 0x00, 0x00, 0x00, 0x01, 0x00, 0x00, 0x00,
 0x05, 0x00, 0x00, 0x00, 0x50, 0x00, 0x00, 0x00, 0x34, 0x00, 0x00, 0x00,
 0x24, 0x00, 0x00, 0x00, 0x14, 0x00, 0x00, 0x00, 0x04, 0x00, 0x00, 0x00,
 0xd0, 0xff, 0xff, 0xff, 0x0e, 0x00, 0x00, 0x00, 0x00, 0x00, 0x00, 0x0e,
 0xdc, 0xff, 0xff, 0xff, 0x09, 0x00, 0x00, 0x00, 0x00, 0x00, 0x00, 0x09,
 0xe8, 0xff, 0xff, 0xff, 0x16, 0x00, 0x00, 0x00, 0x00, 0x00, 0x00, 0x16,
 0xf4, 0xff, 0xff, 0xff, 0x11, 0x00, 0x00, 0x00, 0x00, 0x00, 0x00, 0x11,
 0x0c, 0x00, 0x0c, 0x00, 0x0b, 0x00, 0x00, 0x00, 0x00, 0x00, 0x04, 0x00,
 0x0c, 0x00, 0x00, 0x00, 0x03, 0x00, 0x00, 0x00, 0x00, 0x00, 0x00, 0x03,

};
const unsigned int model_data_len = 14220;

#endif